{"<s>":0,"</s>":1,"<pad>":2,"<unk>":3,"<mask>":4,"!":5,"\"":6,"#":7,"$":8,"%":9,"&":10,"'":11,"(":12,")":13,"*":14,"+":15,",":16,"-":17,".":18,"/":19,"0":20,"1":21,"2":22,"3":23,"4":24,"5":25,"6":26,"7":27,"8":28,"9":29,":":30,";":31,"<":32,"=":33,">":34,"?":35,"@":36,"A":37,"B":38,"C":39,"D":40,"E":41,"F":42,"G":43,"H":44,"I":45,"J":46,"K":47,"L":48,"M":49,"N":50,"O":51,"P":52,"Q":53,"R":54,"S":55,"T":56,"U":57,"V":58,"W":59,"X":60,"Y":61,"Z":62,"[":63,"\\":64,"]":65,"^":66,"_":67,"`":68,"a":69,"b":70,"c":71,"d":72,"e":73,"f":74,"g":75,"h":76,"i":77,"j":78,"k":79,"l":80,"m":81,"n":82,"o":83,"p":84,"q":85,"r":86,"s":87,"t":88,"u":89,"v":90,"w":91,"x":92,"y":93,"z":94,"{":95,"|":96,"}":97,"~":98,"¡":99,"¢":100,"£":101,"¤":102,"¥":103,"¦":104,"§":105,"¨":106,"©":107,"ª":108,"«":109,"¬":110,"®":111,"¯":112,"°":113,"±":114,"²":115,"³":116,"´":117,"µ":118,"¶":119,"·":120,"¸":121,"¹":122,"º":123,"»":124,"¼":125,"½":126,"¾":127,"¿":128,"À":129,"Á":130,"Â":131,"Ã":132,"Ä":133,"Å":134,"Æ":135,"Ç":136,"È":137,"É":138,"Ê":139,"Ë":140,"Ì":141,"Í":142,"Î":143,"Ï":144,"Ð":145,"Ñ":146,"Ò":147,"Ó":148,"Ô":149,"Õ":150,"Ö":151,"×":152,"Ø":153,"Ù":154,"Ú":155,"Û":156,"Ü":157,"Ý":158,"Þ":159,"ß":160,"à":161,"á":162,"â":163,"ã":164,"ä":165,"å":166,"æ":167,"ç":168,"è":169,"é":170,"ê":171,"ë":172,"ì":173,"í":174,"î":175,"ï":176,"ð":177,"ñ":178,"ò":179,"ó":180,"ô":181,"õ":182,"ö":183,"÷":184,"ø":185,"ù":186,"ú":187,"û":188,"ü":189,"ý":190,"þ":191,"ÿ":192,"Ā":193,"ā":194,"Ă":195,"ă":196,"Ą":197,"ą":198,"Ć":199,"ć":200,"Ĉ":201,"ĉ":202,"Ċ":203,"ċ":204,"Č":205,"č":206,"Ď":207,"ď":208,"Đ":209,"đ":210,"Ē":211,"ē":212,"Ĕ":213,"ĕ":214,"Ė":215,"ė":216,"Ę":217,"ę":218,"Ě":219,"ě":220,"Ĝ":221,"ĝ":222,"Ğ":223,"ğ":224,"Ġ":225,"ġ":226,"Ģ":227,"ģ":228,"Ĥ":229,"ĥ":230,"Ħ":231,"ħ":232,"Ĩ":233,"ĩ":234,"Ī":235,"ī":236,"Ĭ":237,"ĭ":238,"Į":239,"į":240,"İ":241,"ı":242,"Ĳ":243,"ĳ":244,"Ĵ":245,"ĵ":246,"Ķ":247,"ķ":248,"ĸ":249,"Ĺ":250,"ĺ":251,"Ļ":252,"ļ":253,"Ľ":254,"ľ":255,"Ŀ":256,"ŀ":257,"Ł":258,"ł":259,"Ń":260,"ĠĠ":261,"ĠĠĠĠ":262,"th":263,"Ġth":264,"ĠĠĠĠĠĠĠĠ":265,"Ġa":266,"in":267,"Ġs":268,"er":269,"nd":270,"Ġw":271,"Ġthe":272,"Ġh":273,"Ġo":274,"re":275,"ou":276,"Ġm":277,"is":278,"Ġf":279,"Ġb":280,"Ġt":281,"es":282,"on":283,"or":284,"at":285,"ll":286,"en":287,"Ġd":288,"ea":289,"ĠĠĠĠĠĠĠĠĠĠĠĠĠĠĠĠ":290,"Ġc":291,"Ġand":292,"Ġl":293,"Ġof":294,"Ġp":295,"Ġn":296,"st":297,"ing":298,"Ġto":299,"--":300,"an":301,"Ġin":302,"Th":303,"ow":304,"ed":305,"om":306,"it":307,"'d":308,"gh":309,"ar":310,"ith":311,"Ġg":312,"ir":313,"ce":314,"le":315,"Ġwh":316,"se":317,"ĠĠĠ":318,"ĠI":319,"ve":320,"And":321,"ch":322,"ot":323,"et":324,"Ġha":325,"ra":326,"ĠS":327,"ut":328,"ght":329,"el":330,"Ġwith":331,"ri":332,"Ġu":333,"Ġsh":334,"ear":335,"----":336,"ld":337,"ere":338,"am":339,"od":340,"Ġst":341,"Ġre":342,"Ġe":343,"al":344,"Ġbe":345,"id":346,"im":347,"ly":348,"ay":349,"ur":350,"Ġthat":351,"Ġhis":352,"Ġthy":353,"ent":354,"as":355,"ver":356,"ro":357,"ion":358,"ad":359,"Ġmy":360,"Ġon":361,"Ġme":362,"Ġnot":363,"Ġy":364,"ĠL":365,"Wh":366,"ill":367,"Ġthou":368,"est":369,"The":370,"il":371,"ain":372,"our":373,"ĠP":374,"Ġfor":375,"ĠA":376,"Ġ1":377,"ight":378,"ĠH":379,"all":380,"ĠM":381,"Ġas":382,"ore":383,"ĠC":384,"ĠĠĠĠĠĠĠĠĠĠĠĠĠĠĠĠĠĠĠĠĠĠĠĠ":385,"Ġall":386,"rom":387,"To":388,"ous":389,"ess":390,"ck":391,"ĠG":392,"Ġor":393,"Ġis":394,"ge":395,"ee":396,"ru":397,"Ġv":398,"ct":399,"if":400,"Ġso":401,"ĠB":402,"ers":403,"us":404,"Ġher":405,"Ġsp":406,"Ġthee":407,"Ġit":408,"rou":409,"ord":410,"--------":411,"Ġsu":412,"ast":413,"Ġfrom":414,"ĠĠĠĠĠĠĠĠĠĠĠĠĠĠĠĠĠĠĠĠ":415,"Of":416,"ĠT":417,"ke":418,"Ġthis":419,"ell":420,"ong":421,"ĠF":422,"res":423,"nt":424,"Ġat":425,"Ġch":426,"ie":427,"em":428,"ther":429,"Ġby":430,"ind":431,"ine":432,"ant":433,"ould":434,"Ġun":435,"Ġhe":436,"ood":437,"Ġne":438,"Ġno":439,"'s":440,"That":441,"ist":442,"ich":443,"ose":444,"ĠO":445,"ph":446,"ĠE":447,"and":448,"With":449,"ble":450,"ate":451,"Ġtheir":452,"Ġlo":453,"pt":454,"Ġhave":455,"Ġhim":456,"qu":457,"Ġk":458,"Ġcom":459,"Ġli":460,"Ġwas":461,"Ġdo":462,"ng":463,"Ġbl":464,"But":465,"ol":466,"Ġthem":467,"ul":468,"ĠD":469,"Ġbut":470,"ence":471,"end":472,"Ġcon":473,"ic":474,"ter":475,"um":476,"In":477,"ise":478,"ust":479,"ĠW":480,"Ġfa":481,"Ġde":482,"ĠGod":483,"pp":484,"ame":485,"ies":486,"ard":487,"Ġthen":488,"row":489,"Ġthey":490,"Ġpl":491,"ort":492,"eav":493,"un":494,"iv":495,"old":496,"ure":497,"Ġshall":498,"Ġwhat":499,"ost":500,"Ġj":501,"Ġfl":502,"Ġnow":503,"Ġwho":504,"Ġsom":505,"ious":506,"ĠN":507,"ish":508,"ĠR":509,"Ġhear":510,"ead":511,"Ġup":512,"os":513,"Ġwill":514,"Ġsa":515,"Ġwhich":516,"Ġan":517,"Ġmore":518,"ĠTh":519,"au":520,"op":521,"Ġse":522,"Ġour":523,"ok":524,"ring":525,"ound":526,"Or":527,"igh":528,"ile":529,"ull":530,"Ġthir":531,"ation":532,"Ġare":533,"orn":534,"ĠĠĠĠĠĠĠĠĠĠĠĠĠĠĠĠĠĠĠĠĠĠĠĠĠĠĠĠ":535,"Ġgl":536,"Ġstre":537,"ĠLord":538,"Ġwor":539,"Ġshe":540,"Ġman":541,"Ġus":542,"now":543,"Ġar":544,"Ġmay":545,"ity":546,"Ġex":547,"Ġyou":548,"out":549,"ire":550,"Ġra":551,"Ġif":552,"Ġal":553,"ig":554,"Ġam":555,"eas":556,"Ġgre":557,"Ġ10":558,"'t":559,"ick":560,"----------------":561,"ive":562,"ran":563,"Ġsw":564,"Ġen":565,"ĠAnd":566,"Ġhad":567,"Ġ16":568,"ak":569,"ath":570,"are":571,"oth":572,"ond":573,"rin":574,"Ġpro":575,"ide":576,"ry":577,"eep":578,"ab":579,"fore":580,"ice":581,"Ġhath":582,"ted":583,"ue":584,"ns":585,"Ġab":586,"ings":587,"Ġwhere":588,"For":589,"Ġsee":590,"Ġcl":591,"ake":592,"Ġru":593,"ount":594,"Ġcan":595,"Ġout":596,"ect":597,"oy":598,"ud":599,"ĠJ":600,"Ġear":601,"ert":602,"Ġever":603,"Ġyet":604,"20":605,"ff":606,"gain":607,"ĠV":608,"Ġri":609,"Ġyour":610,"ag":611,"Ġdis":612,"ĠĠĠĠĠĠĠĠĠĠĠĠĠĠĠĠĠĠĠĠĠĠĠĠĠĠĠĠĠĠĠĠ":613,"rough":614,"Ġhigh":615,"As":616,"ove":617,"ts":618,"ves":619,"Ġthere":620,"nder":621,"Ġper":622,"ark":623,"elf":624,"pl":625,"wn":626,"ass":627,"uch":628,"Ġfo":629,"ĠHeav":630,"Ġsuch":631,"ac":632,"age":633,"bl":634,"Ġdid":635,"Ġ*":636,"Ġqu":637,"Ġself":638,"Ġwe":639,"ons":640,"Ġday":641,"ance":642,"Ġgood":643,"Ġhand":644,"Ġknow":645,"ĠThe":646,"ness":647,"Ġthese":648,"one":649,"to":650,"ap":651,"he":652,"ms":653,"Ġim":654,"Ġwould":655,"Ġhow":656,"Ġhere":657,"Ġfir":658,"Ġtru":659,"Ġoff":660,"cc":661,"eld":662,"30":663,"eet":664,"ilt":665,"ngth":666,"40":667,"Sam":668,"ft":669,"Ġsl":670,"Ġmight":671,"ĠĠĠĠĠĠĠĠĠĠĠĠĠĠĠĠĠĠĠĠĠĠĠĠĠĠĠĠĠĠĠĠĠĠĠĠ":672,"Ġwhen":673,"ĠĠĠĠĠĠĠĠĠĠĠĠĠĠĠĠĠĠĠĠĠĠĠĠĠ":674,"Ġstrength":675,"Ġgreat":676,"Ġver":677,"Ġown":678,"eath":679,"ite":680,"sel":681,"Ġhast":682,"ian":683,"oul":684,"ime":685,"urn":686,"Ġlike":687,"ree":688,"Ġlong":689,"ears":690,"ife":691,"II":692,"ful":693,"ks":694,"Ġthrough":695,"Ġother":696,"Ġmen":697,"own":698,"ower":699,"Where":700,"ĠCh":701,"50":702,"ON":703,"ace":704,"de":705,"Ġ(":706,"Ġwere":707,"art":708,"Ġye":709,"What":710,"round":711,"Ch":712,"ild":713,"Ġway":714,"Ġpra":715,"ade":716,"ress":717,"able":718,"ip":719,"ment":720,"ne":721,"sh":722,"Ġad":723,"Ġsc":724,"its":725,"'re":726,"Yet":727,"ward":728,"Ġro":729,"Ġser":730,"Ġbre":731,"Thou":732,"ely":733,"Not":734,"aw":735,"ave":736,"Ġthose":737,"Ġdes":738,"eal":739,"Ġlet":740,"ition":741,"Ġ6":742,"Ġwell":743,"red":744,"Who":745,"Ġfirst":746,"From":747,"Ġset":748,"Ġold":749,"Ġdel":750,"east":751,"Ġlight":752,"Ġgra":753,"Ġshould":754,"Ġey":755,"Ġone":756,"Ġsome":757,"10":758,"70":759,"My":760,"ack":761,"xt":762,"Ġword":763,"Ġhon":764,"Ġmust":765,"Ġmost":766,"Ġdark":767,"Ġnight":768,"Ġthought":769,"Ġfair":770,"He":771,"His":772,"az":773,"ep":774,"ĠĠĠĠĠĠĠ":775,"oud":776,"Ġbest":777,"llow":778,"Ġpre":779,"Which":780,"80":781,"So":782,"ail":783,"li":784,"less":785,"ock":786,"son":787,"Ġagain":788,"read":789,"eak":790,"Then":791,"ĠSt":792,"Ġdoth":793,"ause":794,"By":795,"ber":796,"Ġsm":797,"ome":798,"Ġend":799,"gin":800,"Ġhead":801,"ens":802,"ean":803,"Ġlast":804,"Ġoft":805,"Ġbefore":806,"Ġonce":807,"Ġupon":808,"ign":809,"90":810,"full":811,"of":812,"Ġapp":813,"Ġtw":814,"Ġtri":815,"ang":816,"Ġwhile":817,"Ġstill":818,"Ġnever":819,"Ġart":820,"les":821,"ov":822,"per":823,"Ġover":824,"eace":825,"Ġcall":826,"Ġev":827,"ĠĠĠĠĠĠĠĠĠĠĠĠĠĠĠĠĠĠĠĠĠ":828,"ortal":829,"Ġsec":830,"Ġglor":831,"Chor":832,"iver":833,"ss":834,"ĠK":835,"Ġ20":836,"Ġmuch":837,"iss":838,"Ġfound":839,"Ġlife":840,"itt":841,"Ġgu":842,"right":843,"riend":844,"Ġunder":845,"Ġrem":846,"When":847,"ains":848,"Ġcont":849,"On":850,"ier":851,"erd":852,"Ġpower":853,"anc":854,"Ġinto":855,"eds":856,"ĠIn":857,"Ġrep":858,"ĠĠĠĠĠĠĠĠĠĠĠĠĠĠĠĠĠĠĠĠĠĠĠĠĠĠ":859,"ĠĠĠĠĠĠĠĠĠĠĠĠĠĠĠĠĠĠĠĠĠĠĠ":860,"ale":861,"cri":862,"ec":863,"ron":864,"ym":865,"Ġea":866,"ĠTo":867,"Ġsing":868,"ern":869,"Ġwithout":870,"Ġres":871,"Ġthough":872,"Ġlove":873,"Ġjust":874,"aught":875,"Ġhonour":876,"av":877,"fter":878,"ook":879,"Ġboth":880,"Ġpo":881,"Ġpres":882,"Ġread":883,"ĠPh":884,"ĠAr":885,"ĠĠĠĠĠĠĠĠĠĠĠĠĠĠĠĠĠĠĠĠĠĠĠĠĠĠĠ":886,"Ġsweet":887,"Ġ&":888,"Ġfe":889,"Ġle":890,"Ġnor":891,"This":892,"Ġrest":893,"ours":894,"ĠBro":895,"ris":896,"Ġ2":897,"Ġfind":898,"Ġdeath":899,"Ġdown":900,"Ġgive":901,"Ġwhom":902,"Ġspell":903,"ĠĠĠĠĠĠĠĠĠĠĠĠĠĠĠĠĠĠĠĠĠĠ":904,"Ġcomm":905,"cl":906,"fe":907,"ield":908,"ple":909,"Ġed":910,"ines":911,"Ġho":912,"Ġmis":913,"Ġbring":914,"Ġtime":915,"ute":916,"rought":917,"Ġkeep":918,"Ġcome":919,"rown":920,"HE":921,"How":922,"Man":923,"aid":924,"be":925,"ia":926,"ial":927,"oice":928,"rong":929,"Ġmade":930,"Ġbet":931,"arm":932,"rag":933,"ĠSon":934,"ĠSam":935,"aint":936,"Ġatt":937,"Ġnew":938,"ope":939,"rans":940,"Be":941,"wh":942,"Ġround":943,"Ġmind":944,"Ġfar":945,"Ġbro":946,"Ġcould":947,"Ġgo":948,"ady":949,"Ġass":950,"ction":951,"Ġsoon":952,"ĠFa":953,"Ġlive":954,"ĠSamson":955,"If":956,"use":957,"int":958,"Ġsin":959,"ough":960,"Ġpart":961,"Ġpeace":962,"Ġname":963,"Thy":964,"ray":965,"ĠShe":966,"Ġret":967,"empt":968,"Ġplace":969,"self":970,"Ġwords":971,"Sh":972,"bs":973,"fer":974,"Ġ4":975,"ins":976,"Ġmake":977,"Ġfull":978,"Ġfree":979,"Ġtra":980,"Ġdiv":981,"Ġpur":982,"Ġpass":983,"Ġtoo":984,"Ġgod":985,"ĠSp":986,"alt":987,"ĠBut":988,"Ġjoy":989,"Ġmany":990,"Ġimp":991,"Ġeach":992,"Sp":993,"ef":994,"ning":995,"oc":996,"Ġent":997,"Ġsay":998,"Ġsight":999,"ated":1000,"ease":1001,"Ġlow":1002,"ĠIs":1003,"ets":1004,"els":1005,"Ġbeen":1006,"Ġonly":1007,"ĠAm":1008,"pherd":1009,"Ġearth":1010,"Ġright":1011,"ĠPhil":1012,"ĠShepherd":1013,"At":1014,"Qu":1015,"Un":1016,"gg":1017,"ject":1018,"led":1019,"ures":1020,"Ġr":1021,"the":1022,"Ġaff":1023,"ink":1024,"Ġfear":1025,"eng":1026,"ows":1027,"ars":1028,"ither":1029,"lem":1030,"ĠSh":1031,"ĠSun":1032,"Ġheard":1033,"Ġevery":1034,"Ġagainst":1035,"cript":1036,"60":1037,"73":1038,"Nor":1039,"for":1040,"other":1041,"Ġ30":1042,"Ġ40":1043,"thing":1044,"Ġacc":1045,"Ġsil":1046,"Ġwa":1047,"Ġwind":1048,"Ġhu":1049,"Ġmortal":1050,"Ġfriend":1051,"Ġbright":1052,"atch":1053,"Ġdou":1054,"Ġless":1055,"Ġpe":1056,"Ġprin":1057,"Ġint":1058,"irth":1059,"Ġwhose":1060,"Ġrev":1061,"Ġbeh":1062,"imes":1063,"ift":1064,"oss":1065,"Ġserv":1066,"Ġedition":1067,"No":1068,"XX":1069,"ily":1070,"nes":1071,"Ġ5":1072,"Ġ8":1073,"Ġ9":1074,"ĠOf":1075,"Ġage":1076,"Ġsoul":1077,"Ġhum":1078,"Ġheav":1079,"oun":1080,"Ġfal":1081,"Ġdi":1082,"Ġdeep":1083,"Ġcount":1084,"Ġpri":1085,"ĠPo":1086,"nto":1087,"Ġlook":1088,"ĠWood":1089,"ĠThy":1090,"ilton":1091,"Ġvert":1092,"Ġpraise":1093,"Ġeyes":1094,"lemn":1095,"SA":1096,"Till":1097,"ces":1098,"ike":1099,"me":1100,"not":1101,"ving":1102,"Ġ3":1103,"Ġ7":1104,"Ġaw":1105,"Ġsor":1106,"Ġsur":1107,"ouse":1108,"ouch":1109,"Ġfall":1110,"Ġtill":1111,"Ġcare":1112,"irgin":1113,"rid":1114,"Ġem":1115,"ions":1116,"ĠLady":1117,"ĠHer":1118,"ĠMan":1119,"Ġvis":1120,"ĠFor":1121,"Ġneed":1122,"Ġcons":1123,"ĠĠĠĠĠĠĠĠĠĠĠĠĠĠĠĠĠĠĠĠĠĠĠĠĠĠĠĠĠ":1124,"ĠLords":1125,"Ġwork":1126,"--------------------------------":1127,"Ġ164":1128,"Ġtrue":1129,"ĠPhilist":1130,"All":1131,"Com":1132,"ES":1133,"St":1134,"Such":1135,"den":1136,"ev":1137,"ience":1138,"ĠThat":1139,"ĠWith":1140,"Ġthus":1141,"Ġweak":1142,"reat":1143,"Ġmi":1144,"Ġmine":1145,"ont":1146,"Ġdra":1147,"Ġdear":1148,"Ġcame":1149,"Ġcause":1150,"ary":1151,"ĠSong":1152,"elt":1153,"alk":1154,"ĠPar":1155,"Ġconf":1156,"rows":1157,"ople":1158,"Ġ1673":1159,"akes":1160,"Ġabout":1161,"Ġseek":1162,"ertain":1163,"Ġhands":1164,"aps":1165,"ittle":1166,"ĠIsra":1167,"Had":1168,"air":1169,"ase":1170,"haps":1171,"mit":1172,"og":1173,"oll":1174,"over":1175,"rous":1176,"ubl":1177,"Ġ'":1178,"Ġere":1179,"Ġ50":1180,"Ġthings":1181,"Ġafter":1182,"Ġsad":1183,"Ġwond":1184,"Ġhold":1185,"ret":1186,"Ġbrought":1187,"ory":1188,"Ġdist":1189,"Ġlea":1190,"Ġinf":1191,"There":1192,"Ġmee":1193,"While":1194,"Ġforce":1195,"ĠAl":1196,"ĠMilton":1197,"Ġvi":1198,"Ġsolemn":1199,"Ġsupp":1200,"ief":1201,"ĠEar":1202,"Ġcomp":1203,"Ġpleas":1204,"Ġflow":1205,"Ġany":1206,"Ġstream":1207,"Ġeye":1208,"Ġspelling":1209,"Ġgods":1210,"Now":1211,"bt":1212,"eed":1213,"ient":1214,"ible":1215,"ling":1216,"so":1217,"ub":1218,"well":1219,"erc":1220,"Ġhope":1221,"ren":1222,"ense":1223,"Ġdead":1224,"ĠĠĠĠĠĠĠĠĠĠĠĠĠĠĠĠĠĠĠ":1225,"Ġpers":1226,"Ġpure":1227,"Ġnat":1228,"Ġgold":1229,"ides":1230,"ades":1231,"Ġforth":1232,"uscript":1233,"ĠTHE":1234,"ĠNation":1235,"Ġheart":1236,"ĠVirgin":1237,"new":1238,"Ġdelight":1239,"Ġtwo":1240,"ymph":1241,"Ġleft":1242,"ength":1243,"Ġpeople":1244,"SAL":1245,"ĠIsrael":1246,"She":1247,"Was":1248,"com":1249,"eb":1250,"eh":1251,"uous":1252,"Ġill":1253,"Ġsound":1254,"Ġwar":1255,"Ġwant":1256,"rest":1257,"Ġbes":1258,"Ġbid":1259,"att":1260,"Ġlear":1261,"Ġlittle":1262,"Ġlength":1263,"Ġpar":1264,"Thir":1265,"Ġgri":1266,"Ġshame":1267,"Ġstra":1268,"Ġstate":1269,"alm":1270,"ĠLaw":1271,"They":1272,"ĠAs":1273,"cks":1274,"Ġvoice":1275,"Ġche":1276,"Ġchan":1277,"Ġnothing":1278,"ands":1279,"Ġhimself":1280,"Ġdef":1281,"Ġjud":1282,"ĠĠĠĠĠĠĠĠĠĠĠĠĠĠĠĠĠĠĠĠĠĠĠĠĠĠĠĠĠĠ":1283,"Ġyouth":1284,"Ġenem":1285,"ĠĠĠĠĠĠĠĠĠĠĠĠĠĠĠĠĠĠĠĠĠĠĠĠĠĠĠĠĠĠĠĠĠĠ":1286,"Ġfollow":1287,"Though":1288,"Ġ60":1289,"PSAL":1290,"ix":1291,"iz":1292,"ied":1293,"ls":1294,"most":1295,"ps":1296,"pos":1297,"ught":1298,"with":1299,"Ġi":1300,"thers":1301,"ĠĠĠĠĠĠĠĠĠĠĠĠ":1302,"Ġang":1303,"Ġsit":1304,"Ġwom":1305,"Ġwand":1306,"Ġhel":1307,"Ġhouse":1308,"outh":1309,"ought":1310,"Ġtell":1311,"Ġtears":1312,"Ġtrans":1313,"Ġda":1314,"ĠĠĠĠĠĠĠĠĠĠĠĠĠĠĠĠĠĠĠĠĠĠĠĠĠĠĠĠĠĠĠĠĠĠĠĠĠĠĠĠ":1315,"Ġcor":1316,"Ġlay":1317,"Ġloud":1318,"Ġinter":1319,"Ġgiv":1320,"Ġground":1321,"cept":1322,"Ġhas":1323,"Ġwithin":1324,"Ġuse":1325,"ament":1326,"ĠPrin":1327,"ĠAu":1328,"ĠCam":1329,"Ġvain":1330,"Ġlies":1331,"ult":1332,"une":1333,"Ġshew":1334,"Ġamong":1335,"Ġgreen":1336,"------------------------":1337,"III":1338,"ilde":1339,"Ġadv":1340,"Ġserve":1341,"Ġsmo":1342,"Ġevil":1343,"Ġglory":1344,"Ġholy":1345,"Ġdivine":1346,"Ġfalse":1347,"16":1348,"Am":1349,"Again":1350,"Co":1351,"Har":1352,"ah":1353,"ach":1354,"ether":1355,"ib":1356,"ool":1357,"pect":1358,"uri":1359,"Ġeas":1360,"Ġthine":1361,"Ġthink":1362,"Ġside":1363,"Ġwis":1364,"Ġocc":1365,"rew":1366,"Ġmet":1367,"Ġmorn":1368,"Ġmean":1369,"Ġfill":1370,"Ġfore":1371,"Ġfoul":1372,"Ġbo":1373,"Ġbea":1374,"Ġbed":1375,"ater":1376,"atter":1377,"ĠĠĠĠĠĠĠĠĠĠĠĠĠĠĠĠĠĠ":1378,"Ġlead":1379,"Ġlab":1380,"ane":1381,"ank":1382,"Ġgave":1383,"ceiv":1384,"Ġhapp":1385,"ĠSo":1386,"ĠSw":1387,"Whom":1388,"ĠPri":1389,"ĠPro":1390,"ĠMus":1391,"eem":1392,"cted":1393,"Ġspir":1394,"Ġspeed":1395,"Ġsub":1396,"aste":1397,"resh":1398,"Ġchar":1399,"ems":1400,"Ġunc":1401,"Ġlost":1402,"Ġdost":1403,"Ġblind":1404,"Ġfav":1405,"ĠThis":1406,"Ġworth":1407,"Ġworld":1408,"Ġcloud":1409,"Ġrun":1410,"agon":1411,"Ġperf":1412,"Ġfoes":1413,"aze":1414,"ocks":1415,"ĠStar":1416,"Ġappear":1417,"Ġglorious":1418,"aughter":1419,"Ġpresent":1420,"Ġreads":1421,"ĠEarth":1422,"Ġchange":1423,"Her":1424,"IN":1425,"It":1426,"La":1427,"OR":1428,"Will":1429,"apt":1430,"cred":1431,"ex":1432,"ever":1433,"iant":1434,"mp":1435,"oin":1436,"oes":1437,"wer":1438,"Ġant":1439,"Ġsk":1440,"Ġsle":1441,"erv":1442,"Ġwr":1443,"Ġwalk":1444,"Ġhar":1445,"Ġod":1446,"rey":1447,"Ġfre":1448,"Ġfire":1449,"Ġbow":1450,"Ġbel":1451,"ĠĠĠĠĠĠĠĠĠĠĠĠĠĠĠĠĠ":1452,"Ġline":1453,"Ġins":1454,"arri":1455,"Ġgent":1456,"ott":1457,"ames":1458,"Ġstri":1459,"ĠLy":1460,"Their":1461,"Ġforg":1462,"ĠMo":1463,"cts":1464,"Ġdeeds":1465,"Ġwhole":1466,"Ġsave":1467,"Ġalone":1468,"Ġdidst":1469,"Ġtruth":1470,"Ġtrust":1471,"ĠĠĠĠĠĠĠĠĠĠĠĠĠĠĠĠĠĠĠĠĠĠĠĠĠĠĠĠĠĠĠĠĠĠĠĠĠ":1472,"ĠĠĠĠĠĠĠĠĠĠĠĠĠĠĠĠĠĠĠĠĠĠĠĠĠĠĠĠĠĠĠĠĠĠĠĠĠĠ":1473,"Ġbreath":1474,"ĠKing":1475,"rison":1476,"Ġ1645":1477,"Ab":1478,"EN":1479,"ER":1480,"app":1481,"dol":1482,"joy":1483,"mer":1484,"ned":1485,"rat":1486,"rod":1487,"uc":1488,"yr":1489,"ĠWh":1490,"Ġrou":1491,"Ġsent":1492,"ery":1493,"Ġwise":1494,"Ġwick":1495,"Ġhard":1496,"Ġop":1497,"Ġbound":1498,"Ġback":1499,"Ġturn":1500,"Ġtouch":1501,"ors":1502,"orous":1503,"orious":1504,"Ġdro":1505,"Ġdwell":1506,"Ġlist":1507,"Ġput":1508,"Ġnum":1509,"chant":1510,"ett":1511,"ĠSons":1512,"Ġshalt":1513,"Ġstood":1514,"Ġstep":1515,"adise":1516,"ĠLove":1517,"Ġsoft":1518,"roud":1519,"Ġsure":1520,"ĠTrag":1521,"ĠFl":1522,"Ġnoise":1523,"ĠDagon":1524,"ended":1525,"ĠĠĠĠĠĠĠĠĠĠĠĠĠĠĠĠĠĠĠĠĠĠĠĠĠĠĠĠĠĠĠ":1526,"Ġrather":1527,"easure":1528,"Ġabove":1529,"Ġperhaps":1530,"Ġimm":1531,"ĠĠĠĠĠĠĠĠĠĠĠĠĠĠĠĠĠĠĠĠĠĠĠĠĠĠĠĠĠĠĠĠĠĠĠĠĠĠĠ":1532,"Ġbreak":1533,"Note":1534,"Ġthoughts":1535,"Ġbetter":1536,"ĠCamb":1537,"AT":1538,"Like":1539,"May":1540,"act":1541,"cid":1542,"ey":1543,"eous":1544,"ext":1545,"gu":1546,"ges":1547,"iest":1548,"ixt":1549,"oom":1550,"ole":1551,"rate":1552,"sp":1553,"swer":1554,"ĠU":1555,"Ġer":1556,"Ġest":1557,"Ġair":1558,"Ġwra":1559,"Ġwilt":1560,"Ġheld":1561,"Ġhome":1562,"Ġmod":1563,"Ġmid":1564,"Ġfell":1565,"Ġfeet":1566,"Ġfier":1567,"Ġbu":1568,"Ġbold":1569,"Ġtend":1570,"ese":1571,"Ġdest":1572,"Ġdif":1573,"ĠĠĠĠĠĠĠĠĠĠĠĠĠĠĠĠĠĠĠĠĠĠĠĠĠĠĠĠĠĠĠĠĠĠĠĠĠĠĠĠĠ":1574,"Ġcour":1575,"Ġcertain":1576,"Ġlate":1577,"Ġlaw":1578,"Ġpast":1579,"Ġposs":1580,"Ġpubl":1581,"Ġtook":1582,"Ġtoward":1583,"Ġind":1584,"Ġinv":1585,"Through":1586,"owers":1587,"edy":1588,"ited":1589,"ities":1590,"itud":1591,"Ġgro":1592,"ĠIt":1593,"ots":1594,"ĠSoul":1595,"Ġshades":1596,"amp":1597,"Ġstrong":1598,"Ġrec":1599,"Ġred":1600,"Ġrel":1601,"urs":1602,"urst":1603,"urns":1604,"ask":1605,"ĠLand":1606,"ĠPl":1607,"ĠAir":1608,"Ġ13":1609,"Ġspeak":1610,"Ġsuff":1611,"ĠTru":1612,"Ġneer":1613,"ĠOr":1614,"Ġkind":1615,"Ġknew":1616,"Ġcomes":1617,"Ġblood":1618,"Ġconc":1619,"Ġfaith":1620,"Ġdev":1621,"ĠGods":1622,"ĠNymph":1623,"ĠThou":1624,"Ġseat":1625,"Ġarm":1626,"athers":1627,"Ġseem":1628,"Ġclose":1629,"Ġcannot":1630,"Ġquite":1631,"Ġsecret":1632,"ĠFather":1633,"Spir":1634,"form":1635,"Ġbehold":1636,"Ġsorrow":1637,"Ġweakness":1638,"Ġleave":1639,"ehov":1640,"Ġgrief":1641,"Ġenemies":1642,"Ġsmooth":1643,"Against":1644,"Ġfavour":1645,"Ġwicked":1646,"itude":1647,"XV":1648,"aph":1649,"dom":1650,"eg":1651,"na":1652,"oly":1653,"rone":1654,"uck":1655,"vi":1656,"vent":1657,"Ġut":1658,"Ġel":1659,"Ġ70":1660,"Ġ80":1661,"Ġsense":1662,"Ġwo":1663,"Ġwon":1664,"Ġhor":1665,"Ġhide":1666,"Ġharm":1667,"Ġmea":1668,"Ġfra":1669,"Ġfur":1670,"Ġbear":1671,"Ġtu":1672,"Ġtake":1673,"Ġtimes":1674,"ony":1675,"Ġdue":1676,"Ġdread":1677,"Ġcast":1678,"Ġled":1679,"Ġleast":1680,"Ġnear":1681,"These":1682,"irc":1683,"irt":1684,"ĠSc":1685,"ĠSea":1686,"Ġstay":1687,"Ġstand":1688,"Ġreas":1689,"Ġbegin":1690,"asion":1691,"Ġ11":1692,"Ġ14":1693,"ĠHis":1694,"ally":1695,"ĠCon":1696,"ĠCom":1697,"Ġval":1698,"ongue":1699,"ĠFathers":1700,"Ġchief":1701,"Ġunf":1702,"Ġbless":1703,"Ġblack":1704,"ĠWor":1705,"Ġface":1706,"Ġdec":1707,"Ġthence":1708,"ĠNo":1709,"Ġsacred":1710,"Ġanswer":1711,"Ġseen":1712,"Ġglad":1713,"Ġalso":1714,"ĠJove":1715,"erty":1716,"Ġrid":1717,"Ġscorn":1718,"Ġdeliver":1719,"Ġgrave":1720,"Ġattend":1721,"Ġwinds":1722,"Ġdoubt":1723,"Ġvertue":1724,"Ġdraw":1725,"Ġgolden":1726,"----------------------------":1727,"Ġwrath":1728,"ehovah":1729,"Al":1730,"IS":1731,"Let":1732,"Under":1733,"aul":1734,"bit":1735,"bour":1736,"ob":1737,"pe":1738,"po":1739,"rant":1740,"under":1741,"vail":1742,"we":1743,"Ġran":1744,"ĠWhat":1745,"ĠQu":1746,"Ġthing":1747,"Ġac":1748,"Ġag":1749,"Ġson":1750,"Ġsist":1751,"ering":1752,"Ġwear":1753,"Ġwish":1754,"Ġwatch":1755,"Ġhate":1756,"Ġhence":1757,"Ġmon":1758,"Ġmus":1759,"Ġfanc":1760,"Ġfresh":1761,"Ġbra":1762,"Ġborn":1763,"Ġbirth":1764,"Ġter":1765,"Ġtrou":1766,"Ġtem":1767,"Ġdon":1768,"Ġdone":1769,"Ġcu":1770,"Ġcru":1771,"Ġcry":1772,"Ġcrown":1773,"Ġproud":1774,"Ġinn":1775,"itle":1776,"Ġgrow":1777,"cend":1778,"ceive":1779,"ĠIdol":1780,"Ġhallow":1781,"amous":1782,"Ġrequ":1783,"Ġbeg":1784,"vers":1785,"Wher":1786,"ĠAp":1787,"ĠAng":1788,"Ġ12":1789,"Ġ15":1790,"ĠMar":1791,"Ġord":1792,"Ġvow":1793,"Ġvar":1794,"ĠBy":1795,"ording":1796,"ĠTem":1797,"ĠFeast":1798,"Ġchoice":1799,"Ġunw":1800,"ĠOF":1801,"Ġloss":1802,"Ġbliss":1803,"ĠDel":1804,"Ġdew":1805,"Ġplay":1806,"Ġsaw":1807,"Ġsaid":1808,"Ġsafe":1809,"ations":1810,"Ġmanuscript":1811,"Ġarms":1812,"Ġext":1813,"Ġyoung":1814,"Ġalong":1815,"Ġclear":1816,"Ġrich":1817,"ĠĠĠĠĠĠĠĠĠĠĠĠĠĠĠĠĠĠĠĠĠĠĠĠĠĠĠĠĠĠĠĠĠĠĠ":1818,"Ġtherefore":1819,"ples":1820,"Ġfirm":1821,"Ġpray":1822,"Ġgrace":1823,"Ġmiser":1824,"Ġreturn":1825,"ĠSpir":1826,"Ġaffli":1827,"Ġfriends":1828,"ridge":1829,"ĠParadise":1830,"Ġhelp":1831,"Ġoccasion":1832,"Ġantient":1833,"Ġgentle":1834,"ĠLycid":1835,"ĠMoon":1836,"Ġelse":1837,"An":1838,"Are":1839,"Eld":1840,"God":1841,"Here":1842,"Hath":1843,"IV":1844,"Into":1845,"Mess":1846,"Que":1847,"SON":1848,"Would":1849,"born":1850,"cer":1851,"eus":1852,"fet":1853,"lf":1854,"mb":1855,"man":1856,"no":1857,"pon":1858,"pose":1859,"rs":1860,"sand":1861,"ual":1862,"uish":1863,"vy":1864,"ĠY":1865,"Ġ90":1866,"ĠQue":1867,"though":1868,"Ġsi":1869,"Ġsits":1870,"erve":1871,"Ġwing":1872,"Ġwide":1873,"Ġwings":1874,"Ġhea":1875,"Ġhid":1876,"Ġhither":1877,"Ġob":1878,"ream":1879,"oura":1880,"Ġma":1881,"Ġmo":1882,"Ġmour":1883,"Ġfit":1884,"Ġfru":1885,"Ġfast":1886,"Ġfeast":1887,"Ġfield":1888,"Ġtre":1889,"Ġdie":1890,"Ġcond":1891,"Ġlie":1892,"Ġinc":1893,"Ġinchant":1894,"edge":1895,"irst":1896,"Ġwhy":1897,"otion":1898,"Ġhalf":1899,"raph":1900,"Ġstran":1901,"idst":1902,"idence":1903,"ays":1904,"ention":1905,"Ġthousand":1906,"aining":1907,"ĠHe":1908,"Ġask":1909,"ĠCount":1910,"ĠGra":1911,"Ġvie":1912,"ĠBe":1913,"Ġspread":1914,"Ġsung":1915,"Ġunp":1916,"Ġnext":1917,"Ġnoble":1918,"ĠOn":1919,"ulous":1920,"Ġconst":1921,"ication":1922,"Ġanother":1923,"aunt":1924,"Ġworse":1925,"Ġexce":1926,"Ġ100":1927,"aking":1928,"Ġprof":1929,"ountain":1930,"Ġknown":1931,"ĠThey":1932,"Ġsecond":1933,"ĠKings":1934,"Shall":1935,"ĠShepherds":1936,"Ġrise":1937,"Ġhung":1938,"Ġdouble":1939,"Ġhuman":1940,"------------------------------------------------------------":1941,"ograph":1942,"Ġviol":1943,"ercy":1944,"ize":1945,"ĠĠĠĠĠĠĠĠĠĠĠĠĠĠ":1946,"Among":1947,"Ġlabour":1948,"Ġsubject":1949,"Ġsleep":1950,"Ġimmortal":1951,"ĠLycidas":1952,"Ġview":1953,"12":1954,"53":1955,"AN":1956,"AR":1957,"After":1958,"Hast":1959,"Is":1960,"Tw":1961,"by":1962,"ded":1963,"dden":1964,"ele":1965,"eve":1966,"hood":1967,"just":1968,"ken":1969,"nly":1970,"oic":1971,"ollow":1972,"pit":1973,"su":1974,"som":1975,"ues":1976,"yl":1977,"Ġ:":1978,"Ġing":1979,"Ġil":1980,"ĠWhere":1981,"Ġels":1982,"thor":1983,"Ġsate":1984,"Ġsame":1985,"Ġsens":1986,"Ġwea":1987,"Ġwel":1988,"Ġwast":1989,"Ġwilde":1990,"Ġothers":1991,"Ġmad":1992,"Ġmark":1993,"Ġmouth":1994,"ises":1995,"Ġfet":1996,"Ġbr":1997,"Ġben":1998,"Ġtongue":1999,"atis":2000,"ates":2001,"lly":2002,"ene":2003,"ener":2004,"enly":2005,"Ġdore":2006,"Ġdire":2007,"Ġla":2008,"Ġpard":2009,"Ġpale":2010,"Ġpron":2011,"anch":2012,"anks":2013,"Ġinde":2014,"Ġinward":2015,"Ġwhether":2016,"chi":2017,"eturn":2018,"Ġhair":2019,"ĠSire":2020,"ĠSeas":2021,"ution":2022,"utograph":2023,"ric":2024,"Ġund":2025,"Ġshort":2026,"Ġreg":2027,"als":2028,"Ġbec":2029,"Ġbend":2030,"Ġbeing":2031,"ident":2032,"urb":2033,"roph":2034,"ĠLXX":2035,"Whose":2036,"ester":2037,"iles":2038,"ĠPeace":2039,"Ġform":2040,"Ġfort":2041,"ĠAn":2042,"ĠAt":2043,"ĠHow":2044,"ĠHar":2045,"ĠMr":2046,"ĠMy":2047,"ĠMon":2048,"ĠMuse":2049,"ĠGl":2050,"Ġvan":2051,"ifts":2052,"Ġsol":2053,"Ġsudden":2054,"Off":2055,"ants":2056,"isten":2057,"ĠEng":2058,"Ġlov":2059,"Ġliqu":2060,"ument":2061,"umph":2062,"ortun":2063,"Ġflight":2064,"Ġflood":2065,"Ġflower":2066,"ishon":2067,"osom":2068,"Ġsever":2069,"Ġworst":2070,"Ġexp":2071,"Ġexam":2072,"Ġprov":2073,"ably":2074,"ountains":2075,"ĠJo":2076,"Ġdispl":2077,"Ġfoe":2078,"Ġdays":2079,"Ġknows":2080,"Ġoffer":2081,"Ġmighty":2082,"Ġvery":2083,"ealth":2084,"Ġdarkness":2085,"Ġdarknes":2086,"Ġpret":2087,"Ġprevent":2088,"Ġsmall":2089,"ivers":2090,"Ġresol":2091,"Ġpoint":2092,"ĠArt":2093,"Ġfew":2094,"Ġcommon":2095,"Ġcommand":2096,"ĠFaith":2097,"Ġcountrey":2098,"ĠWoods":2099,"ĠPhilistian":2100,"Ġnature":2101,"Ġjudge":2102,"Ġwoman":2103,"Ġcorre":2104,"ĠPriest":2105,"ĠMusick":2106,"Ġperfect":2107,"ĠTragedy":2108,"ĠCambridge":2109,"Ġtender":2110,"Ġdiffer":2111,"ĠTruth":2112,"Ġsister":2113,"ĠQueen":2114,".]":2115,"14":2116,"Dal":2117,"IT":2118,"ION":2119,"More":2120,"Our":2121,"Per":2122,"Sw":2123,"Som":2124,"We":2125,"Were":2126,"Your":2127,"aff":2128,"co":2129,"eat":2130,"ging":2131,"iqu":2132,"long":2133,"ma":2134,"nare":2135,"oa":2136,"oke":2137,"sim":2138,"sight":2139,"up":2140,"unt":2141,"ven":2142,"Ġ!":2143,"Ġring":2144,"Ġthick":2145,"Ġwat":2146,"Ġwee":2147,"Ġwound":2148,"Ġopp":2149,"Ġobs":2150,"Ġmed":2151,"Ġmel":2152,"Ġfly":2153,"Ġbar":2154,"Ġbur":2155,"Ġbook":2156,"Ġtim":2157,"Ġtry":2158,"Ġtaste":2159,"Ġtext":2160,"Ġtask":2161,"oral":2162,"orus":2163,"atic":2164,"Ġden":2165,"Ġdim":2166,"Ġdance":2167,"Ġcri":2168,"Ġcalm":2169,"Ġlot":2170,"Ġlest":2171,"Ġland":2172,"Ġlines":2173,"Ġpen":2174,"Ġtold":2175,"Ġinst":2176,"owr":2177,"oward":2178,"ites":2179,"itie":2180,"itter":2181,"lew":2182,"Ġwhite":2183,"sec":2184,"ches":2185,"Ġhabit":2186,"ral":2187,"uty":2188,"Ġshap":2189,"Ġshield":2190,"ode":2191,"ody":2192,"Ġref":2193,"iding":2194,"ided":2195,"ash":2196,"roy":2197,"roach":2198,"Ġonely":2199,"Ġmeet":2200,"Ġyield":2201,"ĠLet":2202,"ĠLost":2203,"Why":2204,"ĠPal":2205,"Ġ110":2206,"ĠHeb":2207,"ĠCour":2208,"ĠCapt":2209,"rupt":2210,"asting":2211,"astity":2212,"Oft":2213,"ĠTri":2214,"ĠFriend":2215,"Ġneigh":2216,"Ġloose":2217,"Ġlocks":2218,"quent":2219,"ĠDeath":2220,"Ġfail":2221,"Ġfather":2222,"Ġdeg":2223,"ĠGodd":2224,"eaves":2225,"Ġflame":2226,"ĠNat":2227,"ishment":2228,"ĠRel":2229,"Ġhearts":2230,"ĠThen":2231,"ops":2232,"Ġworks":2233,"Ġraise":2234,"eason":2235,"rance":2236,"Ġsway":2237,"Ġenjoy":2238,"Ġ163":2239,"Ġprove":2240,"Ġproof":2241,"ĠJud":2242,"agn":2243,"Ġdisc":2244,"Ġdism":2245,"Ġdisp":2246,"Ġhighest":2247,"Ġfolly":2248,"Ġquick":2249,"Ġhaste":2250,"Ġways":2251,"ments":2252,"ship":2253,"Ġscar":2254,"Ġdesert":2255,"aza":2256,"ready":2257,"Ġeven":2258,"itting":2259,"Ġcontent":2260,"ĠInf":2261,"Ġfeel":2262,"ĠAmong":2263,"Ġaccording":2264,"Ġsilence":2265,"Ġwaves":2266,"Ġprinted":2267,"Ġservice":2268,"Ġemph":2269,"ĠPhilistines":2270,"Ġwonder":2271,"Ġperson":2272,"Ġdefence":2273,"Ġanger":2274,"Ġwandring":2275,"ĠAug":2276,"Ġeasily":2277,"Ġboast":2278,"Ġhappy":2279,"Ġspirits":2280,"Ġcharms":2281,"Ġmodern":2282,"Ġutmost":2283,"Ġmeans":2284,"Ġfurther":2285,"ircum":2286,"Ġfancy":2287,"ĠAngel":2288,"ĠDeliver":2289,"fety":2290,"Ġpardon":2291,"Ġindeed":2292,"11":2293,"13":2294,"EM":2295,"Him":2296,"Hence":2297,"Sm":2298,"Sab":2299,"Some":2300,"aves":2301,"bra":2302,"ci":2303,"eel":2304,"gle":2305,"hn":2306,"ires":2307,"lock":2308,"mm":2309,"min":2310,"mon":2311,"nk":2312,"night":2313,"oast":2314,"pire":2315,"prin":2316,"pass":2317,"rine":2318,"sion":2319,"und":2320,"vate":2321,"yll":2322,"ying":2323,"Ġ--":2324,"Ġve":2325,"Ġet":2326,"Ġid":2327,"Ġke":2328,"ĠYet":2329,"Ġrans":2330,"then":2331,"Ġthrone":2332,"ĠĠĠĠĠĠĠĠĠĠ":2333,"ĠĠĠĠĠĠĠĠĠĠĠĠĠĠĠ":2334,"Ġact":2335,"Ġsend":2336,"Ġsought":2337,"Ġwed":2338,"Ġwit":2339,"Ġwood":2340,"Ġweep":2341,"Ġwert":2342,"Ġwild":2343,"Ġwont":2344,"Ġhur":2345,"Ġhill":2346,"Ġhost":2347,"rep":2348,"reth":2349,"reath":2350,"Ġmal":2351,"Ġmur":2352,"Ġmess":2353,"Ġfin":2354,"Ġfro":2355,"Ġfight":2356,"Ġfond":2357,"Ġfears":2358,"Ġfamous":2359,"Ġbad":2360,"Ġbore":2361,"Ġten":2362,"Ġtaught":2363,"ones":2364,"ora":2365,"orm":2366,"ately":2367,"atience":2368,"enge":2369,"Ġdam":2370,"Ġdaughter":2371,"Ġdurst":2372,"ĠĠĠĠĠĠĠĠĠĠĠĠĠĠĠĠĠĠĠĠĠĠĠĠĠĠĠĠĠĠĠĠĠĠĠĠĠĠĠĠĠĠ":2373,"Ġcar":2374,"Ġcro":2375,"Ġcol":2376,"Ġly":2377,"Ġling":2378,"Ġlim":2379,"Ġlaid":2380,"Ġpit":2381,"Ġpun":2382,"Ġpens":2383,"Ġnone":2384,"owre":2385,"owing":2386,"arg":2387,"aring":2388,"Ġgain":2389,"Ġgift":2390,"Ġgrant":2391,"ĠIle":2392,"ĠSph":2393,"ĠSaint":2394,"ries":2395,"rice":2396,"Ġshine":2397,"Ġshade":2398,"Ġstore":2399,"Ġreceive":2400,"verse":2401,"Ġnote":2402,"ĠLa":2403,"Thee":2404,"ĠAll":2405,"ĠAss":2406,"Ġ17":2407,"Ġ120":2408,"Ġ130":2409,"Ġ140":2410,"Ġ150":2411,"ĠHill":2412,"ĠHost":2413,"ĠMen":2414,"ĠMag":2415,"ĠGath":2416,"ĠGiant":2417,"ĠGaza":2418,"geon":2419,"rud":2420,"Ġvol":2421,"ĠBra":2422,"ĠBook":2423,"ush":2424,"usion":2425,"Ġsport":2426,"Ġspring":2427,"Ġspelt":2428,"Ġits":2429,"ords":2430,"ĠTime":2431,"ĠFrom":2432,"Ġchance":2433,"Ġchild":2434,"Ġcharm":2435,"Ġneeds":2436,"Ġnegle":2437,"ĠEl":2438,"quer":2439,"Ġcomb":2440,"Ġcoming":2441,"Ġcompl":2442,"Ġlib":2443,"Ġblast":2444,"Ġblaze":2445,"ular":2446,"umm":2447,"umber":2448,"pping":2449,"ards":2450,"Ġplain":2451,"Ġplease":2452,"ivity":2453,"ĠName":2454,"ĠRe":2455,"Ġsage":2456,"Ġsafety":2457,"ĠThere":2458,"Ġthirst":2459,"Ġgloom":2460,"nown":2461,"nowled":2462,"Ġexpl":2463,"Ġexact":2464,"Ġrace":2465,"Ġamidst":2466,"Ġsword":2467,"Ġ160":2468,"othing":2469,"Ġabs":2470,"Ġseems":2471,"Ġclad":2472,"Ġrude":2473,"Ġrush":2474,"Ġcanst":2475,"ĠJehovah":2476,"Ġears":2477,"ĠĠĠĠĠĠĠĠĠĠĠĠĠĠĠĠĠĠĠĠĠĠĠĠĠĠĠĠĠĠĠĠĠ":2478,"Ġfool":2479,"bled":2480,"Ġquest":2481,"Samson":2482,"Ġslow":2483,"Ġslain":2484,"selves":2485,"ips":2486,"ney":2487,"Ġadd":2488,"Ġends":2489,"Ġoften":2490,"Ġguide":2491,"Ġguilt":2492,"Ġremem":2493,"Ġcontempt":2494,"ymn":2495,"Ġsingle":2496,"ernal":2497,"Ġbetray":2498,"where":2499,"Ġbrood":2500,"Ġtrain":2501,"Ġenter":2502,"ĠShall":2503,"Ġsilver":2504,"Ġbehind":2505,"ounsel":2506,"Ġpride":2507,"Ġprime":2508,"Ġlooks":2509,"Ġvertuous":2510,"Ġaway":2511,"Ġvisit":2512,"mitted":2513,"Ġwondrous":2514,"Ġsuppl":2515,"ĠNations":2516,"Ġwanton":2517,"Ġlearn":2518,"Ġlearned":2519,"Ġdaily":2520,"ĠPrinces":2521,"ĠAuthor":2522,"Ġmorning":2523,"Ġspirit":2524,"Ġclouds":2525,"ointed":2526,"Ġbelow":2527,"Above":2528,"Ġrout":2529,"Ġnumber":2530,"Ġfierce":2531,"Ġcourse":2532,"Ġsuffer":2533,"ĠNymphs":2534,"Ġreason":2535,"ween":2536,"Ġaccept":2537,"Ġinnoc":2538,"Ġorder":2539,"Ġvarious":2540,"ĠSpirit":2541,"Ġmourn":2542,"Ġwelcom":2543,"Ġfetch":2544,"atisf":2545,"ancholy":2546,"ĠEngl":2547,"Ġexample":2548,"Ġneighbour":2549,"Ġransom":2550,"Ġmessage":2551,"AC":2552,"AS":2553,"Bl":2554,"Con":2555,"Che":2556,"DON":2557,"ED":2558,"Ex":2559,"Ent":2560,"Far":2561,"Have":2562,"IX":2563,"Listen":2564,"Me":2565,"Nothing":2566,"Sc":2567,"ax":2568,"bes":2569,"bing":2570,"but":2571,"bid":2572,"cor":2573,"cess":2574,"cure":2575,"cious":2576,"cean":2577,"cience":2578,"di":2579,"dy":2580,"dle":2581,"dition":2582,"gl":2583,"gon":2584,"gress":2585,"her":2586,"ii":2587,"io":2588,"iot":2589,"iet":2590,"ius":2591,"jest":2592,"light":2593,"ner":2594,"nal":2595,"oar":2596,"port":2597,"tis":2598,"ters":2599,"upt":2600,"yri":2601,"yond":2602,"ze":2603,"Ġrow":2604,"Ġire":2605,"ĠWho":2606,"ĠWhen":2607,"Ġthan":2608,"Ġthrow":2609,"Ġthree":2610,"Ġthrong":2611,"Ġthunder":2612,"Ġaught":2613,"Ġacts":2614,"Ġautograph":2615,"inct":2616,"Ġsore":2617,"Ġsign":2618,"Ġsatisf":2619,"era":2620,"erse":2621,"Ġwrought":2622,"Ġwrong":2623,"Ġhour":2624,"rets":2625,"Ġmin":2626,"Ġmut":2627,"Ġmist":2628,"Ġmass":2629,"Ġmov":2630,"Ġmute":2631,"Ġmilde":2632,"Ġmotion":2633,"Ġmention":2634,"Ġfold":2635,"Ġfrown":2636,"Ġbin":2637,"Ġbri":2638,"Ġbran":2639,"Ġburn":2640,"Ġbase":2641,"Ġbatt":2642,"Ġbody":2643,"Ġtune":2644,"orrow":2645,"ats":2646,"Ġdet":2647,"Ġdri":2648,"Ġdrin":2649,"Ġdrows":2650,"Ġdream":2651,"Ġdishon":2652,"eam":2653,"Ġca":2654,"Ġcut":2655,"Ġcease":2656,"Ġcool":2657,"Ġcapt":2658,"Ġlament":2659,"Ġpop":2660,"Ġpage":2661,"Ġpress":2662,"Ġpains":2663,"Ġnigh":2664,"ingly":2665,"Thus":2666,"omb":2667,"omp":2668,"ital":2669,"arge":2670,"Ġgon":2671,"Ġgay":2672,"Ġgrows":2673,"Ġgirt":2674,"Ġgifts":2675,"irce":2676,"Ġwher":2677,"Ġwhence":2678,"ĠIron":2679,"cher":2680,"ching":2681,"ote":2682,"Ġhaving":2683,"raw":2684,"rall":2685,"ĠSin":2686,"ĠSir":2687,"ĠSain":2688,"ried":2689,"Ġur":2690,"Ġshore":2691,"Ġshout":2692,"earing":2693,"Ġstring":2694,"Ġsteep":2695,"Ġstray":2696,"Ġrenew":2697,"Ġreceiv":2698,"Ġeev":2699,"alks":2700,"Ġbef":2701,"ury":2702,"uring":2703,"ents":2704,"asse":2705,"rose":2706,"Ġnotes":2707,"ĠLib":2708,"ilst":2709,"ouring":2710,"ĠPan":2711,"ĠPres":2712,"ĠPrison":2713,"Ġfors":2714,"ĠAd":2715,"Ġ170":2716,"ĠHy":2717,"ĠCl":2718,"ĠCy":2719,"ĠCity":2720,"ĠCons":2721,"cknowled":2722,"ĠGent":2723,"gether":2724,"eek":2725,"ifie":2726,"ĠBar":2727,"Ġspare":2728,"Ġspred":2729,"Ġspec":2730,"ĠTre":2731,"ĠTim":2732,"resent":2733,"nts":2734,"Ġchains":2735,"emn":2736,"Ġunjust":2737,"ĠOcean":2738,"pheus":2739,"ĠEb":2740,"ĠEn":2741,"ĠEast":2742,"Ġload":2743,"Ġloath":2744,"Ġkn":2745,"Ġliving":2746,"Ġdoes":2747,"Ġdoom":2748,"Ġblest":2749,"Ġblame":2750,"Ġthemselves":2751,"ĠDo":2752,"ĠDay":2753,"icer":2754,"icious":2755,"umes":2756,"Ġdeb":2757,"Ġplight":2758,"Ġplant":2759,"ungeon":2760,"ives":2761,"Ġfled":2762,"Ġflocks":2763,"isht":2764,"ĠReturn":2765,"Ġsake":2766,"Ġanough":2767,"ĠThus":2768,"Ġarg":2769,"Ġrage":2770,"Ġalas":2771,"Ġalready":2772,"Ġgreet":2773,"Ġswift":2774,"Ġenv":2775,"Ġencl":2776,"Ġ1653":2777,"aken":2778,"rina":2779,"ables":2780,"Ġabode":2781,"Ġearly":2782,"ĠVine":2783,"Ġperform":2784,"pless":2785,"asson":2786,"Ġfoot":2787,"ĠHeaven":2788,"bling":2789,"Ġquit":2790,"ĠTheir":2791,"Ġimb":2792,"Ġwouldst":2793,"Ġslaughter":2794,"Ġverse":2795,"seless":2796,"ĠCher":2797,"ĠChar":2798,"ĠChorus":2799,"Ġrock":2800,"Ġbrest":2801,"Ġdesp":2802,"Ġdesire":2803,"Ġdescend":2804,"Ġprey":2805,"Ġheads":2806,"Ġtrim":2807,"Ġsecure":2808,"ission":2809,"Ġease":2810,"Ġlovely":2811,"aving":2812,"avish":2813,"Ġrestore":2814,"Ġmisprin":2815,"Ġbrings":2816,"Ġsince":2817,"Ġreturns":2818,"Ġrighteous":2819,"gged":2820,"Ġaffect":2821,"Ġsilent":2822,"Ġfriendly":2823,"Ġreveal":2824,"ĠThyrs":2825,"ĠManuscript":2826,"ĠManoa":2827,"Ġmio":2828,"Ġmixt":2829,"Ġinfl":2830,"Ġstreams":2831,"Ġparts":2832,"Ġstrait":2833,"ĠPrinted":2834,"Ġevils":2835,"urious":2836,"Ġwisdom":2837,"ĠProf":2838,"ING":2839,"ORD":2840,"Ġskill":2841,"arriage":2842,"appy":2843,"ĠWhy":2844,"Ġsteps":2845,"Ġesteem":2846,"Ġdestroy":2847,"Ġpossess":2848,"Ġindign":2849,"Ġwonted":2850,"Ġhorrid":2851,"Ġattendant":2852,"Ġmiserable":2853,"Ġfruit":2854,"Ġconstra":2855,"Ġexcell":2856,"Ġpronoun":2857,"Ġbecause":2858,"ĠJohn":2859,"Ġmedit":2860,"ĠRelig":2861,"Ġemphas":2862,"Ġeternal":2863,"Ġidle":2864,"Ġmurm":2865,"ĠThyrsis":2866,"15":2867,"17":2868,"AI":2869,"AM":2870,"Can":2871,"De":2872,"Dis":2873,"En":2874,"Full":2875,"HO":2876,"Imp":2877,"Jehovah":2878,"Love":2879,"Might":2880,"Mine":2881,"Made":2882,"Ne":2883,"Nat":2884,"OS":2885,"Over":2886,"OEM":2887,"Tell":2888,"Trans":2889,"US":2890,"Upon":2891,"You":2892,"aim":2893,"afe":2894,"bar":2895,"bers":2896,"band":2897,"bably":2898,"cy":2899,"cons":2900,"cchi":2901,"ds":2902,"ept":2903,"fl":2904,"fold":2905,"fted":2906,"follow":2907,"gment":2908,"hor":2909,"head":2910,"iar":2911,"lorn":2912,"mity":2913,"oi":2914,"off":2915,"oint":2916,"obs":2917,"oeb":2918,"ping":2919,"pest":2920,"press":2921,"ror":2922,"rut":2923,"ty":2924,"tar":2925,"ua":2926,"vial":2927,"way":2928,"was":2929,"wail":2930,"ye":2931,"ypt":2932,"za":2933,"Ġ.":2934,"Ġris":2935,"ĠUn":2936,"Ġ------------------------":2937,"ĠĠĠĠĠĠ":2938,"Ġthreat":2939,"Ġap":2940,"Ġast":2941,"Ġaid":2942,"inch":2943,"inks":2944,"Ġsort":2945,"Ġsigh":2946,"Ġsease":2947,"erfore":2948,"Ġwin":2949,"Ġwent":2950,"Ġwine":2951,"Ġwife":2952,"Ġwealth":2953,"Ġwalks":2954,"Ġhorn":2955,"Ġheal":2956,"Ġought":2957,"reme":2958,"Ġmer":2959,"Ġmain":2960,"Ġmould":2961,"Ġmak":2962,"Ġmount":2963,"Ġmove":2964,"Ġmatch":2965,"Ġmirth":2966,"Ġmercy":2967,"Ġfu":2968,"Ġfat":2969,"Ġfour":2970,"Ġfee":2971,"Ġfron":2972,"Ġfaint":2973,"Ġfix":2974,"Ġfixt":2975,"Ġbus":2976,"Ġbind":2977,"Ġbrow":2978,"Ġbud":2979,"Ġbears":2980,"Ġbanks":2981,"Ġte":2982,"Ġtear":2983,"Ġtempt":2984,"Ġtakes":2985,"Ġtitle":2986,"orth":2987,"ories":2988,"atin":2989,"ating":2990,"ench":2991,"Ġdw":2992,"Ġdem":2993,"Ġdust":2994,"Ġdeal":2995,"Ġdanc":2996,"Ġdaint":2997,"each":2998,"eaks":2999,"ĠĠĠĠĠĠĠĠĠĠĠĠĠĠĠĠĠĠĠĠĠĠĠĠĠĠĠĠĠĠĠĠĠĠĠĠĠĠĠĠĠĠĠĠ":3000,"Ġcal":3001,"Ġcur":3002,"Ġcent":3003,"Ġciv":3004,"Ġcold":3005,"Ġcele":3006,"Ġlod":3007,"Ġlend":3008,"Ġlust":3009,"Ġlap":3010,"Ġlater":3011,"Ġpace":3012,"Ġpatience":3013,"Ġner":3014,"Ġnon":3015,"Ġnur":3016,"stall":3017,"stand":3018,"Ġtoy":3019,"any":3020,"Ġgot":3021,"Ġgaze":3022,"let":3023,"seen":3024,"ĠIf":3025,"vel":3026,"ched":3027,"charg":3028,"otted":3029,"Ġhaunt":3030,"ĠSl":3031,"ĠSat":3032,"ĠSac":3033,"ĠScept":3034,"elm":3035,"elest":3036,"eless":3037,"Ġunto":3038,"Ġshad":3039,"odious":3040,"Ġstud":3041,"Ġstory":3042,"Ġreb":3043,"Ġrear":3044,"Ġreck":3045,"Ġeff":3046,"aly":3047,"aying":3048,"uro":3049,"vering":3050,"rove":3051,"road":3052,"Ġmem":3053,"Ġyears":3054,"ĠLad":3055,"ĠLON":3056,"Whether":3057,"illars":3058,"estiv":3059,"ourney":3060,"ĠPs":3061,"ĠPip":3062,"ĠPubl":3063,"Ġformer":3064,"Ġforbid":3065,"ĠHath":3066,"ĠMel":3067,"ĠMess":3068,"ĠMaid":3069,"ĠMother":3070,"Ġash":3071,"ĠCan":3072,"Too":3073,"essant":3074,"ckt":3075,"ĠGo":3076,"ĠGold":3077,"ruction":3078,"Ġvast":3079,"usk":3080,"Ġspent":3081,"Ġspee":3082,"orded":3083,"ĠTw":3084,"ĠTitle":3085,"ĠFame":3086,"Ġchose":3087,"emper":3088,"ante":3089,"antine":3090,"Ġunh":3091,"Ġuns":3092,"ists":3093,"istes":3094,"isted":3095,"ando":3096,"Ġloves":3097,"Ġwash":3098,"Ġbloss":3099,"olation":3100,"ulg":3101,"ĠDe":3102,"ĠDan":3103,"ical":3104,"ume":3105,"ĠWom":3106,"ĠWind":3107,"ĠWilt":3108,"Ġdeed":3109,"Ġplac":3110,"iving":3111,"ivine":3112,"Ġjourney":3113,"Ġflie":3114,"Ġflock":3115,"Ġflames":3116,"ĠNight":3117,"ĠRu":3118,"Ġhearken":3119,"osi":3120,"oso":3121,"oses":3122,"opes":3123,"Ġgli":3124,"Ġglut":3125,"Ġstrew":3126,"Ġsheen":3127,"Ġrais":3128,"Ġalmost":3129,"igli":3130,"Ġamorous":3131,"Ġenth":3132,"Ġenough":3133,"Ġhadst":3134,"arents":3135,"onds":3136,"Ġproph":3137,"Ġabide":3138,"Ġabroad":3139,"Ġclime":3140,"Ġruin":3141,"Ġrule":3142,"Ġoutward":3143,"ĠJoy":3144,"ĠJac":3145,"ertue":3146,"ĠVi":3147,"ager":3148,"acle":3149,"acsim":3150,"Ġquell":3151,"Ġquaint":3152,"Ġdayes":3153,"Ġgoodness":3154,"apital":3155,"Ġoffice":3156,"Ġslight":3157,"Ġvers":3158,"ONG":3159,"resses":3160,"Ġrose":3161,"Ġroof":3162,"Ġbreed":3163,"Notes":3164,"Ġdesc":3165,"ealous":3166,"Ġnightly":3167,"epul":3168,"like":3169,"ĠStars":3170,"fully":3171,"Ġtriumph":3172,"Ġtrivial":3173,"angu":3174,"angled":3175,"perience":3176,"Ġovert":3177,"Ġguard":3178,"Ġremains":3179,"Ġremaining":3180,"Once":3181,"ierce":3182,"Ġreport":3183,"Ġreproach":3184,"criber":3185,"Ġrespect":3186,"aughters":3187,"Ġpoet":3188,"Ġpresence":3189,"ĠArc":3190,"ĠArm":3191,"ĠArms":3192,"Ġfeign":3193,"ĠBrothers":3194,"Ġmisch":3195,"ragon":3196,"Ġnews":3197,"Before":3198,"which":3199,"Ġbroad":3200,"Ġbrook":3201,"Ġsooner":3202,"Ġpurs":3203,"Ġpurpose":3204,"Ġpassage":3205,"Ġimportun":3206,"Ġentertain":3207,"Ġaccident":3208,"Ġmortals":3209,"Ġprinter":3210,"Ġhumble":3211,"ĠPoem":3212,"ĠPoets":3213,"ĠPoems":3214,"Comes":3215,"Ġdrawn":3216,"akesp":3217,"Ġseeking":3218,"ollo":3219,"Ġmeek":3220,"Ġvict":3221,"Ġsuppose":3222,"Ġpleasure":3223,"Ġflowry":3224,"Ġpersw":3225,"Ġdelights":3226,"Ġbesides":3227,"Ġparted":3228,"Ġenemy":3229,"Ġfollows":3230,"Ġio":3231,"Ġwomb":3232,"Ġtransgress":3233,"Ġgives":3234,"Ġadvant":3235,"Ġeasie":3236,"Ġwisest":3237,"Ġforet":3238,"Ġbeams":3239,"Ġleads":3240,"erved":3241,"Ġwrit":3242,"Ġharsh":3243,"Ġodours":3244,"Ġodorous":3245,"Ġfreed":3246,"About":3247,"rata":3248,"Ġopen":3249,"Ġbounds":3250,"Ġcourt":3251,"Ġpossible":3252,"Ġpublic":3253,"Ġtowards":3254,"ampion":3255,"Ġhideous":3256,"ĠScene":3257,"Ġreasons":3258,"Ġbegins":3259,"ĠComus":3260,"ĠWorld":3261,"poems":3262,"Ġaged":3263,"Ġtrouble":3264,"Ġtemper":3265,"Ġrequest":3266,"Wherwith":3267,"ĠTemple":3268,"Ġaffliction":3269,"ourage":3270,"ourable":3271,"Ġtreas":3272,"ĠCountrey":3273,"Ġviolence":3274,"Ġmouths":3275,"Ġbrute":3276,"Ġbeneath":3277,"Ġregard":3278,"ĠLXXX":3279,"ĠGlass":3280,"Ġdifferent":3281,"Ġtimely":3282,"Ġdeny":3283,"ĠCaptive":3284,"ĠTribe":3285,"ĠGoddes":3286,"Ġscarce":3287,"ĠDeliverer":3288,"Sabrina":3289,"oasts":3290,"Ġkept":3291,"Ġlingua":3292,"Ġpunishment":3293,"Ġliberty":3294,"ĠEnglish":3295,"gonistes":3296,"Ġdrowsie":3297,"ĠSaints":3298,"ĠCyn":3299,"cknowledge":3300,"ĠEnem":3301,"Ġargument":3302,"Transcriber":3303,"oebus":3304,"Ġ--------------------------":3305,"ĠLONDON":3306,").":3307,");":3308,".'":3309,"Ad":3310,"Ar":3311,"Aff":3312,"Bes":3313,"Ben":3314,"Both":3315,"Cl":3316,"Could":3317,"Down":3318,"Dep":3319,"Def":3320,"EL":3321,"ET":3322,"Either":3323,"Fear":3324,"Find":3325,"Fame":3326,"First":3327,"Gu":3328,"Hel":3329,"ID":3330,"Lest":3331,"Less":3332,"LES":3333,"OM":3334,"Pl":3335,"Par":3336,"PON":3337,"RE":3338,"RI":3339,"Re":3340,"Rise":3341,"Sin":3342,"Sle":3343,"See":3344,"Tri":3345,"THE":3346,"Toward":3347,"VI":3348,"VII":3349,"VIII":3350,"War":3351,"Ye":3352,"Yea":3353,"ai":3354,"ares":3355,"ather":3356,"ault":3357,"bre":3358,"bow":3359,"bed":3360,"bro":3361,"bian":3362,"cis":3363,"cuse":3364,"ding":3365,"dest":3366,"dess":3367,"diant":3368,"ek":3369,"fus":3370,"ford":3371,"go":3372,"gs":3373,"ger":3374,"gal":3375,"gue":3376,"hear":3377,"hand":3378,"hold":3379,"ior":3380,"iate":3381,"ipt":3382,"ium":3383,"iance":3384,"iov":3385,"kes":3386,"lab":3387,"lorious":3388,"lasting":3389,"mble":3390,"mrose":3391,"mission":3392,"ners":3393,"oot":3394,"oid":3395,"oof":3396,"oots":3397,"oosom":3398,"pro":3399,"path":3400,"pond":3401,"pris":3402,"pense":3403,"rit":3404,"rot":3405,"rise":3406,"sie":3407,"sol":3408,"tri":3409,"uence":3410,"upp":3411,"vest":3412,"wise":3413,"wixt":3414,"xx":3415,"your":3416,"zen":3417,"ĠZ":3418,"Ġir":3419,"Ġign":3420,"there":3421,"thought":3422,"ĠĠĠĠĠĠĠĠĠĠĠ":3423,"Ġayr":3424,"Ġacknowledge":3425,"inth":3426,"ining":3427,"iness":3428,"Ġsn":3429,"Ġsy":3430,"Ġsed":3431,"Ġsus":3432,"Ġsong":3433,"Ġsig":3434,"Ġsalt":3435,"Ġsna":3436,"Ġsnare":3437,"Ġseason":3438,"Ġsitting":3439,"erous":3440,"Ġwake":3441,"Ġwave":3442,"Ġwater":3443,"Ġwreath":3444,"Ġwaving":3445,"Ġhit":3446,"Ġhee":3447,"Ġoh":3448,"Ġore":3449,"Ġobl":3450,"Ġobe":3451,"reh":3452,"Ġmir":3453,"Ġmood":3454,"Ġmiss":3455,"Ġmaid":3456,"Ġmakes":3457,"Ġmeasure":3458,"Ġmagn":3459,"isc":3460,"isit":3461,"ision":3462,"Ġfle":3463,"Ġfem":3464,"Ġfant":3465,"Ġfood":3466,"Ġfate":3467,"Ġfame":3468,"Ġfits":3469,"Ġfountain":3470,"Ġba":3471,"Ġber":3472,"Ġbru":3473,"Ġband":3474,"Ġbount":3475,"Ġbank":3476,"Ġblew":3477,"Ġbones":3478,"Ġbonds":3479,"Ġty":3480,"Ġtro":3481,"Ġtest":3482,"Ġtum":3483,"Ġtread":3484,"Ġtrod":3485,"onna":3486,"lla":3487,"llen":3488,"ena":3489,"enius":3490,"Ġdu":3491,"Ġdea":3492,"Ġdull":3493,"Ġdred":3494,"Ġdang":3495,"Ġdying":3496,"Ġdrud":3497,"Ġdaughters":3498,"eare":3499,"eather":3500,"eable":3501,"eans":3502,"ĠĠĠĠĠĠĠĠĠĠĠĠĠĠĠĠĠĠĠĠĠĠĠĠĠĠĠĠĠĠĠĠĠĠĠĠĠĠĠĠĠĠĠĠĠĠĠ":3503,"Ġcure":3504,"Ġcorn":3505,"Ġcreat":3506,"Ġcover":3507,"Ġcrew":3508,"Ġcirc":3509,"Ġcounsel":3510,"Ġcapital":3511,"Ġcourage":3512,"Ġlon":3513,"Ġlat":3514,"Ġlent":3515,"Ġlull":3516,"Ġlean":3517,"Ġlift":3518,"Ġleaves":3519,"Ġpu":3520,"Ġprom":3521,"Ġport":3522,"Ġpull":3523,"Ġpity":3524,"Ġpath":3525,"Ġpaid":3526,"Ġprison":3527,"Ġprod":3528,"Ġpowers":3529,"Ġpomp":3530,"Ġpierce":3531,"Ġnam":3532,"Ġnames":3533,"ster":3534,"stain":3535,"sters":3536,"stem":3537,"ingle":3538,"ingale":3539,"Ġtogether":3540,"anth":3541,"Thrice":3542,"itted":3543,"arch":3544,"Ġgr":3545,"Ġgar":3546,"Ġgone":3547,"ird":3548,"Ġwheel":3549,"seem":3550,"ĠIN":3551,"ĠIvy":3552,"vey":3553,"che":3554,"cho":3555,"otes":3556,"etra":3557,"etimes":3558,"ĠSy":3559,"ĠSen":3560,"ĠSil":3561,"ĠSever":3562,"ĠServ":3563,"ĠSeat":3564,"ĠSONG":3565,"ĠSepul":3566,"uts":3567,"Ġunt":3568,"Ġshow":3569,"Ġsham":3570,"Ġshare":3571,"erend":3572,"Ġstar":3573,"Ġstir":3574,"Ġstain":3575,"Ġstru":3576,"Ġstands":3577,"Ġreach":3578,"Ġrenown":3579,"Ġeie":3580,"Ġequ":3581,"ales":3582,"alil":3583,"Ġbeyond":3584,"Ġbewail":3585,"ids":3586,"ider":3587,"urch":3588,"roves":3589,"ioness":3590,"Ġmeer":3591,"Ġyon":3592,"Ġyear":3593,"Ġyee":3594,"Ġyoke":3595,"ĠLion":3596,"ĠLife":3597,"ĠLike":3598,"ĠLangu":3599,"ilight":3600,"ility":3601,"ainted":3602,"ourse":3603,"ĠPR":3604,"ĠPer":3605,"ĠPaul":3606,"ĠPOEM":3607,"ĠPillars":3608,"ĠParents":3609,"Ġforc":3610,"Ġforlorn":3611,"ĠAx":3612,"ĠAnt":3613,"ĠActs":3614,"ĠAyr":3615,"ĠAgonistes":3616,"Ġ180":3617,"Ġ190":3618,"ĠHon":3619,"ĠHear":3620,"ĠHall":3621,"ĠHeath":3622,"ĠHoly":3623,"ĠHymn":3624,"ĠHoasts":3625,"allow":3626,"ĠMat":3627,"ĠMit":3628,"ĠMay":3629,"ĠMill":3630,"ĠMercy":3631,"Ġaside":3632,"ĠCause":3633,"ĠCont":3634,"ĠCirce":3635,"ĠGre":3636,"ĠGree":3637,"geous":3638,"Ġvill":3639,"Ġvile":3640,"Ġvac":3641,"Ġvows":3642,"ctu":3643,"ifi":3644,"ifted":3645,"Ġsooth":3646,"ĠBl":3647,"ĠBri":3648,"ĠBab":3649,"ĠBeast":3650,"ĠBreth":3651,"usband":3652,"Ġspear":3653,"Ġsup":3654,"Ġsunk":3655,"Ġsullen":3656,"aster":3657,"asters":3658,"ĠTurn":3659,"ĠTroph":3660,"elle":3661,"ĠFur":3662,"ĠFirst":3663,"ĠFacsim":3664,"Ġchi":3665,"Ġchang":3666,"Ġchastity":3667,"Ġcheek":3668,"anto":3669,"Ġunex":3670,"Ġunivers":3671,"Ġnecess":3672,"Ġnoon":3673,"ĠOx":3674,"ĠEd":3675,"ĠEg":3676,"ĠEp":3677,"ĠEx":3678,"Without":3679,"Ġloft":3680,"Ġkiss":3681,"Ġcomple":3682,"Ġblow":3683,"Ġblot":3684,"Ġbloom":3685,"olt":3686,"olence":3687,"ĠDragon":3688,"ices":3689,"iculous":3690,"umb":3691,"ĠWe":3692,"ĠWo":3693,"ĠWar":3694,"ĠWill":3695,"ĠWine":3696,"ĠWife":3697,"ĠWarri":3698,"Ġfac":3699,"Ġfact":3700,"Ġfault":3701,"Ġdecl":3702,"Ġpledge":3703,"eaving":3704,"eavour":3705,"Ġshallow":3706,"Ġjoc":3707,"Ġjoin":3708,"Ġjealous":3709,"Ġsometimes":3710,"ĠNaz":3711,"ĠNept":3712,"ĠRight":3713,"ĠRead":3714,"ĠReg":3715,"eads":3716,"osa":3717,"osyll":3718,"Ġsable":3719,"opy":3720,"oping":3721,"ounds":3722,"ounded":3723,"Ġthird":3724,"Ġexpect":3725,"Ġexperience":3726,"Ġexcuse":3727,"ired":3728,"Ġrash":3729,"Ġraign":3730,"Ġradiant":3731,"Ġamor":3732,"rann":3733,"Ġswain":3734,"Ġens":3735,"rint":3736,"Ġproves":3737,"Ġprocl":3738,"Ġpropos":3739,"Ġprobably":3740,"abl":3741,"Ġruine":3742,"Ġrules":3743,"Ġrural":3744,"Ġrugged":3745,"oyce":3746,"udd":3747,"ĠJust":3748,"Ġearn":3749,"erto":3750,"Ġeverlasting":3751,"ĠVerse":3752,"Ġdispos":3753,"Ġdisgu":3754,"Ġperish":3755,"acious":3756,"Ġweeds":3757,"Ġimag":3758,"Ġimpl":3759,"Ġhowever":3760,"Ġoffence":3761,"ccess":3762,"Ġslumber":3763,"Ġgreater":3764,"ians":3765,"ĠChastity":3766,"ĠChampion":3767,"ĠChurch":3768,"Ġprai":3769,"shood":3770,"Ġadorn":3771,"Ġscap":3772,"wards":3773,"Ġrob":3774,"Ġroar":3775,"Ġdeserve":3776,"Ġgray":3777,"Ġshouldst":3778,"Ġprefer":3779,"Soft":3780,"lier":3781,"liest":3782,"Ġended":3783,"Ġlastly":3784,"Ġtwilight":3785,"angs":3786,"Ġcalls":3787,"Ġevent":3788,"Ġsecrets":3789,"Ġguess":3790,"Ġcontr":3791,"Ġcontra":3792,"Ġreprint":3793,"ecause":3794,"Ġresort":3795,"Ġpoor":3796,"Ġpoems":3797,"Ġpresum":3798,"Ġready":3799,"Ġreader":3800,"ĠPhoebus":3801,"Ġsweetly":3802,"Ġfeats":3803,"Ġrestless":3804,"ĠBrother":3805,"Ġspells":3806,"clean":3807,"feit":3808,"Ġhollow":3809,"Ġattempt":3810,"Begin":3811,"Ġfarr":3812,"Ġbrother":3813,"Ġcouldst":3814,"Ġassur":3815,"Ġassail":3816,"ctions":3817,"ĠFair":3818,"Ġlively":3819,"Ġtravail":3820,"Ġpurple":3821,"ĠSpring":3822,"Ġjoyn":3823,"Ġearths":3824,"ggs":3825,"Ġwaies":3826,"Ġhunder":3827,"Ġprint":3828,"Ġintent":3829,"Ġintended":3830,"Ġrevenge":3831,"Ġreverend":3832,"Ġeditions":3833,"ĠOff":3834,"Ġheavenly":3835,"ounc":3836,"Ġfalshood":3837,"ĠPoet":3838,"Ġvertues":3839,"Ġsurround":3840,"ĠHeroic":3841,"Ġvision":3842,"Ġvisage":3843,"ĠSongs":3844,"Ġconfusion":3845,"overn":3846,"Ġwonders":3847,"Ġdistress":3848,"Ġsupport":3849,"Ġcompar":3850,"Ġpleasing":3851,"Ġpleasures":3852,"Ġflowers":3853,"ercise":3854,"Ġdeadly":3855,"Ġnatures":3856,"Ġwarr":3857,"Ġbeside":3858,"ĠLawns":3859,"Ġcheer":3860,"Ġyouthful":3861,"Ġfollowed":3862,"Ġangry":3863,"Ġanguish":3864,"Ġcorrupt":3865,"Ġgiven":3866,"Ġadvise":3867,"Ġoccurs":3868,"Ġbeam":3869,"Ġbeauty":3870,"Ġlabours":3871,"ĠSwain":3872,"ĠPrimrose":3873,"eeming":3874,"Ġcharge":3875,"Ġblindness":3876,"Ġworlds":3877,"Ġperfet":3878,"Ġskies":3879,"Ġwrite":3880,"Ġodious":3881,"Ġfreely":3882,"Ġfrequent":3883,"Ġstrict":3884,"Ġstrife":3885,"Ġforgive":3886,"ENT":3887,"ĠWhose":3888,"Ġtoucht":3889,"Ġnumbers":3890,"Ġsurely":3891,"acter":3892,"spring":3893,"Ġerr":3894,"Ġfiery":3895,"Ġdestruction":3896,"Ġpublish":3897,"Ġgrove":3898,"ĠTrump":3899,"Ġconceal":3900,"Ġconcern":3901,"Ġfaithful":3902,"Ġarmed":3903,"Ġwickedness":3904,"Ġutter":3905,"Ġharmony":3906,"Ġfrail":3907,"Ġnearer":3908,"Ġunfold":3909,"Ġridiculous":3910,"Ġdeliverance":3911,"IST":3912,"Ġrank":3913,"ĠQuire":3914,"Ġacqu":3915,"Ġweary":3916,"Ġmusick":3917,"Ġtroubl":3918,"Ġcuor":3919,"Ġcruel":3920,"ĠIdols":3921,"Wherin":3922,"ĠApollo":3923,"ĠMarble":3924,"ĠTemples":3925,"ĠSpirits":3926,"SONG":3927,"mbly":3928,"Ġheave":3929,"Ġheaps":3930,"Ġhidden":3931,"Ġmajest":3932,"Ġfields":3933,"Ġstrange":3934,"Ġsleeping":3935,"ĠSirens":3936,"ĠLXXXV":3937,"Ġfortune":3938,"Ġliquor":3939,"Ġliquid":3940,"Ġseveral":3941,"Ġresolv":3942,"Perhaps":3943,"Sweet":3944,"Ġwatry":3945,"Ġobscure":3946,"Ġmelodious":3947,"Ġbarren":3948,"Ġburden":3949,"Ġcrie":3950,"secute":3951,"Ġshapes":3952,"ĠLetter":3953,"ĠCourt":3954,"ĠCourts":3955,"ircumcis":3956,"Himself":3957,"Ġhurt":3958,"Ġhostile":3959,"Ġcross":3960,"Ġpensive":3961,"ĠSaintly":3962,"ĠHosts":3963,"Ġneglected":3964,"Ġcombat":3965,"Ġcomplain":3966,"ĠRegain":3967,"Ġgloomy":3968,"Ġquestion":3969,"Ġrememb":3970,"Ġsupplies":3971,"Ġinnocence":3972,"ACE":3973,"Conf":3974,"binger":3975,"uptial":3976,"yrian":3977,"Ġburning":3978,"Ġurg":3979,"ĠLiberty":3980,"Ġspecial":3981,"ĠEbrew":3982,"ĠEastern":3983,"ĠCherub":3984,"Ġrighteousness":3985,"Ġinfluence":3986,"Ġmeditate":3987,"ĠReligion":3988,"Nature":3989,"Ġapace":3990,"Ġfront":3991,"Ġcalam":3992,"Ġcenter":3993,"Ġcivil":3994,"Ġceleb":3995,"Ġnerves":3996,"Ġnurse":3997,"ĠSacri":3998,"ĠScepter":3999,"elestial":4000,"Ġshadows":4001,"Ġrebell":4002,"Ġmemory":4003,"ĠPublic":4004,"Ġblossom":4005,"ĠNightingale":4006,"ĠRuth":4007,"iglia":4008,"Ġenthron":4009,"ĠJacobs":4010,"Ġpursue":4011,"Ġforetold":4012,"Besides":4013,"Since":4014,"labour":4015,"Ġsigne":4016,"Ġsnares":4017,"Ġcreatures":4018,"ĠLanguage":4019,"ĠTrophies":4020,"ĠFacsimile":4021,"Ġlofty":4022,"ĠNeptune":4023,"Ġproclaim":4024,".--":4025,"18":4026,"24":4027,"38":4028,"47":4029,"AG":4030,"Ah":4031,"Ay":4032,"App":4033,"Bet":4034,"Bear":4035,"Brought":4036,"CA":4037,"Came":4038,"Cons":4039,"CHE":4040,"Cont":4041,"Da":4042,"Do":4043,"Dro":4044,"Draw":4045,"Divine":4046,"End":4047,"Ere":4048,"Fl":4049,"Fair":4050,"Follow":4051,"Gent":4052,"Gain":4053,"Gave":4054,"Great":4055,"HY":4056,"Hear":4057,"Hid":4058,"Hard":4059,"Heav":4060,"Hail":4061,"IB":4062,"IC":4063,"IM":4064,"IR":4065,"Ir":4066,"Int":4067,"Imm":4068,"Just":4069,"LE":4070,"Lord":4071,"Look":4072,"Must":4073,"Most":4074,"Much":4075,"Mean":4076,"Mirth":4077,"Masson":4078,"NG":4079,"Night":4080,"Nymph":4081,"Next":4082,"OL":4083,"OP":4084,"PH":4085,"Ph":4086,"RY":4087,"Return":4088,"ST":4089,"Set":4090,"Sent":4091,"Sto":4092,"Sec":4093,"TA":4094,"TH":4095,"TO":4096,"Tis":4097,"Trag":4098,"UM":4099,"Up":4100,"Unt":4101,"Vertue":4102,"XI":4103,"aus":4104,"after":4105,"aeus":4106,"boosom":4107,"cin":4108,"can":4109,"cal":4110,"cly":4111,"cest":4112,"cont":4113,"der":4114,"dra":4115,"day":4116,"eer":4117,"een":4118,"ege":4119,"eated":4120,"fill":4121,"fort":4122,"fice":4123,"fect":4124,"gn":4125,"gan":4126,"goes":4127,"how":4128,"hair":4129,"iel":4130,"iam":4131,"ially":4132,"jud":4133,"kin":4134,"kie":4135,"known":4136,"land":4137,"lip":4138,"lause":4139,"more":4140,"mbl":4141,"maid":4142,"net":4143,"oz":4144,"oil":4145,"oits":4146,"par":4147,"pra":4148,"poral":4149,"rour":4150,"rist":4151,"rons":4152,"rated":4153,"rrata":4154,"sse":4155,"sper":4156,"safe":4157,"ta":4158,"ti":4159,"tor":4160,"tle":4161,"ui":4162,"uce":4163,"ura":4164,"uall":4165,"uff":4166,"ualt":4167,"vere":4168,"vil":4169,"ws":4170,"wor":4171,"worn":4172,"water":4173,"ys":4174,"yre":4175,"zza":4176,"Ġ?":4177,"Ġx":4178,"Ġz":4179,"Ġes":4180,"Ġess":4181,"Ġeld":4182,"that":4183,"thrown":4184,"Ġthri":4185,"Ġthither":4186,"Ġthank":4187,"Ġthrall":4188,"Ġtherfore":4189,"ĠĠĠĠĠĠĠĠĠ":4190,"Ġau":4191,"Ġav":4192,"Ġable":4193,"Ġaust":4194,"inc":4195,"inv":4196,"inter":4197,"inish":4198,"Ġsim":4199,"Ġsine":4200,"Ġsqu":4201,"Ġsick":4202,"Ġsings":4203,"Ġsons":4204,"Ġsix":4205,"erable":4206,"ermin":4207,"nde":4208,"Ġwan":4209,"Ġwet":4210,"Ġwid":4211,"Ġwest":4212,"Ġwak":4213,"Ġhell":4214,"Ġhind":4215,"Ġhol":4216,"Ġhue":4217,"Ġhours":4218,"Ġhealth":4219,"Ġhopes":4220,"Ġocchi":4221,"rel":4222,"rear":4223,"rent":4224,"rease":4225,"rels":4226,"ouns":4227,"Ġmate":4228,"Ġmeas":4229,"Ġmag":4230,"Ġmild":4231,"Ġmia":4232,"Ġmother":4233,"Ġmelt":4234,"Ġmerc":4235,"Ġmatter":4236,"Ġmountains":4237,"Ġmoral":4238,"Ġmorrow":4239,"isse":4240,"isper":4241,"Ġfing":4242,"Ġfut":4243,"Ġfam":4244,"Ġful":4245,"Ġfun":4246,"Ġfright":4247,"Ġfestiv":4248,"Ġban":4249,"Ġble":4250,"Ġbent":4251,"Ġbeast":4252,"Ġbalm":4253,"Ġburi":4254,"Ġbane":4255,"Ġbott":4256,"Ġburst":4257,"Ġbitter":4258,"Ġtal":4259,"Ġtall":4260,"Ġtree":4261,"Ġtang":4262,"Ġturb":4263,"Ġteach":4264,"Ġtresses":4265,"esh":4266,"esie":4267,"ona":4268,"onc":4269,"onious":4270,"orable":4271,"orgeous":4272,"atly":4273,"atrous":4274,"lls":4275,"llic":4276,"eno":4277,"enes":4278,"enry":4279,"Ġdin":4280,"Ġdom":4281,"Ġdir":4282,"Ġdil":4283,"Ġdate":4284,"Ġdare":4285,"Ġdry":4286,"Ġdale":4287,"Ġdrew":4288,"Ġdank":4289,"Ġdamp":4290,"Ġdaunt":4291,"Ġdash":4292,"Ġdungeon":4293,"Ġduro":4294,"Ġdrear":4295,"Ġcra":4296,"Ġcam":4297,"Ġcell":4298,"Ġcost":4299,"Ġcoy":4300,"Ġcens":4301,"Ġcours":4302,"Ġcase":4303,"Ġcircum":4304,"Ġcords":4305,"Ġcelestial":4306,"Ġlord":4307,"Ġlake":4308,"Ġlack":4309,"Ġlang":4310,"Ġlatter":4311,"Ġluck":4312,"Ġlately":4313,"Ġlarge":4314,"Ġlavish":4315,"Ġph":4316,"Ġpet":4317,"Ġpil":4318,"Ġpost":4319,"Ġpeal":4320,"Ġpause":4321,"Ġpec":4322,"Ġpett":4323,"Ġprot":4324,"Ġpangs":4325,"Ġnak":4326,"Ġnaught":4327,"Ġnought":4328,"Ġnurs":4329,"stal":4330,"stood":4331,"strous":4332,"strate":4333,"stantine":4334,"inguish":4335,"Ġtop":4336,"Ġinh":4337,"Ġinfer":4338,"Ġinmost":4339,"Ġinform":4340,"Ġiniqu":4341,"Thine":4342,"edly":4343,"edition":4344,"oment":4345,"itent":4346,"itable":4347,"arite":4348,"ithe":4349,"Ġgate":4350,"Ġgran":4351,"Ġgrown":4352,"Ġgates":4353,"Ġgener":4354,"ceed":4355,"ceit":4356,"leeve":4357,"vels":4358,"chus":4359,"chaste":4360,"chioness":4361,"Ġhap":4362,"Ġhaples":4363,"ram":4364,"rand":4365,"rais":4366,"raim":4367,"rass":4368,"ĠSer":4369,"ĠSion":4370,"ĠSnow":4371,"elie":4372,"rib":4373,"ril":4374,"rious":4375,"rivi":4376,"Ġuph":4377,"Ġuseless":4378,"Ġshook":4379,"Ġshady":4380,"Ġshifts":4381,"Ġshrine":4382,"earch":4383,"ereft":4384,"amor":4385,"ameld":4386,"amber":4387,"amily":4388,"Ġsto":4389,"Ġstor":4390,"Ġstro":4391,"Ġstead":4392,"Ġstage":4393,"Ġstern":4394,"Ġstub":4395,"Ġstole":4396,"Ġsteel":4397,"Ġstorm":4398,"Ġstately":4399,"Ġrever":4400,"Ġregain":4401,"Ġrender":4402,"Ġrecom":4403,"Ġrejoy":4404,"Ġeies":4405,"alf":4406,"alms":4407,"Ġbeleeve":4408,"immer":4409,"lys":4410,"urg":4411,"urp":4412,"enty":4413,"ented":4414,"asions":4415,"vert":4416,"roll":4417,"Ġnoted":4418,"Ġyea":4419,"ĠLo":4420,"ĠLill":4421,"ĠLocks":4422,"ĠLuc":4423,"ĠLAT":4424,"ĠLeaves":4425,"ĠLORD":4426,"ĠLatin":4427,"Whilst":4428,"illions":4429,"esta":4430,"esting":4431,"estic":4432,"ils":4433,"iling":4434,"ilot":4435,"ilous":4436,"ĠPra":4437,"ĠPers":4438,"ĠPred":4439,"ĠPilot":4440,"Ġforms":4441,"ĠAG":4442,"ĠAgain":4443,"ĠAeg":4444,"ĠAutograph":4445,"Ġ19":4446,"ĠHes":4447,"ĠHell":4448,"ĠHerd":4449,"ĠHope":4450,"ĠHouse":4451,"ĠHair":4452,"ĠHEN":4453,"allel":4454,"ĠMS":4455,"ĠMa":4456,"ĠMe":4457,"ĠMin":4458,"ĠMorn":4459,"ĠMount":4460,"ĠMountain":4461,"ĠMountains":4462,"ĠMAS":4463,"ĠMasson":4464,"ĠMarriage":4465,"Ġascend":4466,"orest":4467,"ĠCry":4468,"ĠCave":4469,"ĠCows":4470,"ĠCoun":4471,"ĠColl":4472,"ĠCup":4473,"Ġallow":4474,"Took":4475,"ĠGu":4476,"ĠGenius":4477,"ĠGovern":4478,"Ġorn":4479,"rust":4480,"rung":4481,"runk":4482,"Ġvent":4483,"Ġvig":4484,"Ġvag":4485,"Ġvap":4486,"Ġvirgin":4487,"Ġvoyce":4488,"ctar":4489,"ification":4490,"Ġsov":4491,"Ġsoyl":4492,"ĠBond":4493,"ĠBac":4494,"ĠBirth":4495,"ĠBeh":4496,"Ġherds":4497,"Ġspot":4498,"Ġspun":4499,"Ġspake":4500,"Ġspoke":4501,"Ġspeaks":4502,"Ġspangled":4503,"Ġsphear":4504,"Ġitself":4505,"ordon":4506,"Ġsum":4507,"Ġsuck":4508,"Ġsuper":4509,"Ġsubs":4510,"Ġsuoi":4511,"astle":4512,"astick":4513,"ĠTO":4514,"ĠTor":4515,"ĠTill":4516,"ĠTray":4517,"ĠTowers":4518,"ĠTomb":4519,"ells":4520,"ĠFort":4521,"ĠFool":4522,"ĠFoes":4523,"ĠFamily":4524,"respond":4525,"Ġcha":4526,"Ġcho":4527,"Ġchill":4528,"Ġchain":4529,"Ġchime":4530,"Ġchuse":4531,"emph":4532,"empl":4533,"anti":4534,"antle":4535,"Ġunst":4536,"Ġunite":4537,"Ġunsh":4538,"Ġunlock":4539,"Ġunseen":4540,"Ġunclean":4541,"Ġheat":4542,"Ġheir":4543,"Ġneat":4544,"Ġneither":4545,"Ġnectar":4546,"istrat":4547,"oseph":4548,"ĠON":4549,"phear":4550,"phraim":4551,"ĠED":4552,"ĠEm":4553,"ĠEth":4554,"ĠEnd":4555,"ĠEle":4556,"ĠEld":4557,"ĠEur":4558,"ĠEars":4559,"ĠEev":4560,"ĠErrata":4561,"ĠElys":4562,"ĠEphraim":4563,"Within":4564,"ptuous":4565,"Ġknot":4566,"Ġlik":4567,"Ġliv":4568,"Ġlives":4569,"Ġblown":4570,"Ġblank":4571,"olves":4572,"ulse":4573,"ulsion":4574,"uliar":4575,"ĠDa":4576,"ĠDian":4577,"ĠDalil":4578,"ending":4579,"Ġconv":4580,"icount":4581,"ummer":4582,"ustrious":4583,"ĠWis":4584,"ĠWest":4585,"ĠWool":4586,"ĠWinch":4587,"Ġdeity":4588,"Ġdeceiv":4589,"Ġdeceit":4590,"Ġplea":4591,"unk":4592,"uns":4593,"Ġjoint":4594,"Ġflatter":4595,"Ġflesh":4596,"Ġsomthing":4597,"ĠNor":4598,"ĠNay":4599,"ishes":4600,"ĠRE":4601,"ĠRh":4602,"ĠRoy":4603,"ĠRocks":4604,"ĠRob":4605,"ĠReason":4606,"ĠRoses":4607,"Ġhearth":4608,"Ġupright":4609,"osen":4610,"osing":4611,"Ġwillingly":4612,"Ġsaf":4613,"Ġsav":4614,"ĠThom":4615,"ĠThine":4616,"augh":4617,"Ġsees":4618,"Ġseest":4619,"Ġseven":4620,"Ġthirty":4621,"orning":4622,"Ġglist":4623,"Ġglance":4624,"Ġglowing":4625,"Ġstreet":4626,"Ġworship":4627,"Ġsheild":4628,"Ġmans":4629,"Ġarise":4630,"Ġargu":4631,"Ġarched":4632,"Ġexec":4633,"Ġexempt":4634,"Ġexcept":4635,"Ġray":4636,"Ġrare":4637,"Ġrapt":4638,"Ġalter":4639,"Ġalike":4640,"igious":4641,"Ġamain":4642,"Ġamend":4643,"Ġamaze":4644,"ickle":4645,"Ġencom":4646,"Ġenchant":4647,"Ġenvy":4648,"aker":4649,"rink":4650,"Ġproport":4651,"Ġprosecute":4652,"Ġprosper":4653,"Ġabhor":4654,"Ġwherein":4655,"Ġwherefore":4656,"Fors":4657,"Ġseeing":4658,"Ġclust":4659,"Ġrum":4660,"ĠJoseph":4661,"Ġevermore":4662,"ĠVale":4663,"ĠVicount":4664,"ages":4665,"Ġdisease":4666,"Ġdissol":4667,"Ġhighth":4668,"Ġhigher":4669,"Ġhighly":4670,"Ġpermitted":4671,"Ġperilous":4672,"ploy":4673,"ĠHeavens":4674,"acc":4675,"acy":4676,"acinth":4677,"Ġ**":4678,"Ġquiet":4679,"Ġknowst":4680,"ĠThee":4681,"ĠThem":4682,"Ġimit":4683,"Ġtruly":4684,"Ġoffended":4685,"ilty":4686,"Ġslide":4687,"Ġslip":4688,"Ġslack":4689,"Ġslavish":4690,"Ġgreatest":4691,"Ġverd":4692,"reep":4693,"Ġotherwise":4694,"ĠChance":4695,"ĠChrist":4696,"Ġyeer":4697,"Ġyeers":4698,"Ġpraier":4699,"Ġpraises":4700,"Ġadm":4701,"Ġadore":4702,"Ġadde":4703,"Ġroom":4704,"Ġroot":4705,"Ġrosie":4706,"Ġbread":4707,"Ġ670":4708,"Ġ680":4709,"Ġlighter":4710,"Ġgrain":4711,"Ġgracious":4712,"Ġshoulders":4713,"Ġsomething":4714,"Ġhonest":4715,"Ġfairly":4716,"Heb":4717,"Ġbestow":4718,"Ġprep":4719,"Ġprevail":4720,"Soon":4721,"reader":4722,"ĠState":4723,"Ġheadlong":4724,"Ġlasting":4725,"Ġappears":4726,"Ġappreh":4727,"Ġtwain":4728,"Ġtwisted":4729,"Ġtrial":4730,"Ġtripp":4731,"Ġoverthrown":4732,"Ġ200":4733,"Ġfoundation":4734,"Ġguile":4735,"Ġunderstood":4736,"Ġremor":4737,"Ġremov":4738,"Ġcontin":4739,"ieri":4740,"Ġpowerful":4741,"ancy":4742,"ances":4743,"ancers":4744,"Ġrepent":4745,"ecy":4746,"yme":4747,"Ġsinging":4748,"Ġresist":4749,"aven":4750,"avour":4751,"Ġpoem":4752,"Ġsweetest":4753,"Ġfeed":4754,"Ġleg":4755,"ĠBrook":4756,"Ġ22":4757,"Ġ25":4758,"Ġ220":4759,"Ġ210":4760,"Ġ290":4761,"Ġfinding":4762,"Ġcommend":4763,"Ġcommands":4764,"Ġcommitted":4765,"Ġkeeps":4766,"Many":4767,"Ġbetween":4768,"Ġattention":4769,"what":4770,"when":4771,"Ġminds":4772,"Ġbroke":4773,"Ġgoes":4774,"Ġassay":4775,"Ġassign":4776,"Ġassaul":4777,"Ġassault":4778,"inters":4779,"Ġsincer":4780,"emption":4781,"Should":4782,"Ġtrains":4783,"Ġpurpos":4784,"Ġpursu":4785,"Ġpassion":4786,"Ġjoyes":4787,"Ġimport":4788,"Ġimpos":4789,"Speak":4790,"Ġenters":4791,"Ġlowest":4792,"ĠAmar":4793,"Ġrightly":4794,"ĠPhiloso":4795,"Unless":4796,"ggi":4797,"Ġrod":4798,"Ġafford":4799,"ĠSheep":4800,"ĠShakesp":4801,"cription":4802,"Ġhuge":4803,"Ġintend":4804,"Ġservil":4805,"Ġservant":4806,"Ġservitude":4807,"Ġ810":4808,"Ġ880":4809,"Ġheavy":4810,"Ġdiam":4811,"Ġcounter":4812,"Ġ760":4813,"Ġsorry":4814,"Ġsorrows":4815,"Ġsurcharg":4816,"Ġsurpris":4817,"Ġsurvey":4818,"Ġembra":4819,"Ġvisited":4820,"Ġconsum":4821,"Ġconsort":4822,"Ġconscience":4823,"Comus":4824,"EST":4825,"Still":4826,"Ġdearly":4827,"Ġconfin":4828,"Ġconfess":4829,"Ġconfus":4830,"Ġconfidence":4831,"Ġafterwards":4832,"Ġsaddest":4833,"Ġdisturb":4834,"Ġleaf":4835,"Ġleague":4836,"Ġinfli":4837,"ĠAltar":4838,"Ġcompany":4839,"Ġpleasant":4840,"rench":4841,"Ġpersons":4842,"Ġnative":4843,"Ġwarbled":4844,"Ġwarbling":4845,"Ġwanted":4846,"Ġlearnt":4847,"Ġgrim":4848,"Ġstrain":4849,"ĠLawes":4850,"Ġjudgment":4851,"Ġyouthfull":4852,"ixed":4853,"Ġii":4854,"ĠĠĠĠĠĠĠĠĠĠĠĠĠ":4855,"Ġwander":4856,"Ġhelpless":4857,"Ġtransl":4858,"Ġtransform":4859,"Ġcorporal":4860,"Ġadvent":4861,"Ġadvanc":4862,"Ġsmoak":4863,"1673":4864,"Ġmetre":4865,"Ġboosom":4866,"ĠSolemn":4867,"ĠSword":4868,"ĠProse":4869,"ĠMuses":4870,"Ġuncouth":4871,"Ġuncessant":4872,"Ġuncircumcis":4873,"Ġworthy":4874,"Ġworthiest":4875,"ORACE":4876,"credible":4877,"exts":4878,"Ġsky":4879,"Ġwritt":4880,"Ġbowr":4881,"otton":4882,"ottage":4883,"Ġforgot":4884,"Ġbreathing":4885,"ĠKingdom":4886,"Ġroul":4887,"Ġdrove":4888,"Ġlisten":4889,"etters":4890,"ĠFlocks":4891,"ĠFlowers":4892,"ATION":4893,"eys":4894,"guided":4895,"rateful":4896,"ĠUnto":4897,"Ġerrand":4898,"Ġestate":4899,"Ġmidst":4900,"Ġmidnight":4901,"Ġbuon":4902,"Ġbuilt":4903,"Ġbuild":4904,"Ġdestin":4905,"Ġdiffus":4906,"Ġcertainly":4907,"Ġlaws":4908,"Ġpublick":4909,"Ġinvite":4910,"Ġstrongest":4911,"Ġrecorded":4912,"Ġredemption":4913,"Ġrelie":4914,"ĠPlut":4915,"ĠOrpheus":4916,"Ġbloody":4917,"Ġfaithfull":4918,"Ġdevout":4919,"Ġdevotion":4920,"Ġseats":4921,"apha":4922,"Ġwoe":4923,"Ġwoo":4924,"Ġmeant":4925,"Ġfrailty":4926,"Ġtua":4927,"Ġtufted":4928,"ĠConquer":4929,"ĠConstantine":4930,"Ġvalour":4931,"Ġvalue":4932,"Ġchiefly":4933,"Ġblessing":4934,"ĠWorks":4935,"ĠNoble":4936,"Ġgladly":4937,"Alas":4938,"Ġrang":4939,"Ġranks":4940,"Ġagen":4941,"Ġmonosyll":4942,"Ġmonstrous":4943,"Ġmusing":4944,"Ġbrand":4945,"Ġtemple":4946,"Ġtempest":4947,"Ġcui":4948,"Ġcrude":4949,"Ġinnum":4950,"Ġbegan":4951,"ĠAngels":4952,"ĠMarchioness":4953,"ĠDelph":4954,"Ġrichest":4955,"Ġfirmament":4956,"Ġmiseries":4957,"Ġreturning":4958,"Ġafflict":4959,"ĠYouth":4960,"Ġobject":4961,"Ġmoan":4962,"Ġmoist":4963,"Ġcondition":4964,"Ġcondemn":4965,"Ġinchanting":4966,"Ġinchantments":4967,"ĠHebe":4968,"ĠGraces":4969,"ĠBefore":4970,"Ġspreads":4971,"Ġunpar":4972,"aunting":4973,"Ġexceed":4974,"Ġviolent":4975,"Amongst":4976,"pitaph":4977,"Ġsensual":4978,"Ġsensualt":4979,"Ġweapon":4980,"Ġdores":4981,"Ġpronouns":4982,"Ġbecome":4983,"rophe":4984,"Ġvanqu":4985,"Ġprovidence":4986,"ĠJoves":4987,"Ġpretious":4988,"Ġresolution":4989,"Ġcorrection":4990,"ĠPriests":4991,"ique":4992,"Ġrings":4993,"Ġthickest":4994,"Ġwaters":4995,"Ġwounds":4996,"Ġoppress":4997,"Ġmelancholy":4998,"Ġbooks":4999,"Ġcrime":5000,"Ġpenitent":5001,"Ġshape":5002,"ĠPalest":5003,"ĠPalace":5004,"rupted":5005,"ĠFriends":5006,"ĠGoddess":5007,"ĠNature":5008,"ĠNativity":5009,"Ġ1637":5010,"ĠJudge":5011,"ĠJudah":5012,"Ġdismal":5013,"ĠInfant":5014,"ĠAmongst":5015,"Smo":5016,"Ġwedlock":5017,"Ġwitness":5018,"Ġweeping":5019,"Ġhills":5020,"Ġdamsel":5021,"Ġcarry":5022,"Ġpensieri":5023,"ĠSphear":5024,"ĠLaure":5025,"ĠAsses":5026,"ĠHills":5027,"ĠMagistrat":5028,"ĠBracly":5029,"Ġcharmed":5030,"Ġneglect":5031,"ummers":5032,"Ġplainly":5033,"Ġexploits":5034,"Ġexactly":5035,"Ġguilty":5036,"Ġremember":5037,"Ġbrooding":5038,"Ġsupplication":5039,"Ġinnocent":5040,"Ġneighbourhood":5041,"Blind":5042,"Enter":5043,"correspond":5044,"herit":5045,"Ġsatisfi":5046,"Ġmassie":5047,"Ġbranches":5048,"Ġbattel":5049,"Ġdetermin":5050,"Ġdrink":5051,"Ġdrinks":5052,"Ġdishonour":5053,"Ġeeven":5054,"ĠPresident":5055,"Ġforsook":5056,"ĠHyacinth":5057,"ĠConscience":5058,"ĠGentiles":5059,"Ġspreds":5060,"ĠTimna":5061,"Ġloathsom":5062,"ĠDoct":5063,"Ġenvious":5064,"ĠChariot":5065,"Ġmisprint":5066,"Ġmisprints":5067,"Ġindignities":5068,"Ġconstrain":5069,"Ġemphasis":5070,"Ġmurmurs":5071,"Young":5072,"consum":5073,"follows":5074,"Ġrises":5075,"Ġthreatn":5076,"Ġsighs":5077,"Ġmatchless":5078,"Ġfatal":5079,"Ġfeeble":5080,"Ġdwels":5081,"Ġeffect":5082,"ĠLadies":5083,"ĠMelancholy":5084,"Ġspeech":5085,"ĠTwo":5086,"Ġwasht":5087,"ulgar":5088,"ĠDeitie":5089,"ĠWomen":5090,"Ġprophane":5091,"Ġovertake":5092,"Ġmischief":5093,"Ġimportunity":5094,"Ġentertainment":5095,"Ġvictorious":5096,"Ġperswade":5097,"Ġadvantage":5098,"Ġfreedom":5099,"ĠEnemies":5100,"Afford":5101,"Paradise":5102,"handed":5103,"Ġsystem":5104,"Ġobey":5105,"Ġfemale":5106,"Ġfantastick":5107,"Ġbaits":5108,"Ġtestifie":5109,"Ġdrudge":5110,"Ġcircle":5111,"Ġlonely":5112,"Ġlatest":5113,"Ġprompt":5114,"Ġgrind":5115,"ĠPOEMS":5116,"ĠHeathen":5117,"Ġvacant":5118,"ĠBride":5119,"ĠBrethren":5120,"Ġuniversal":5121,"Ġcompleat":5122,"umbring":5123,"ĠWootton":5124,"Ġjocond":5125,"ĠNazarite":5126,"ĠReader":5127,"ĠRegions":5128,"Ġensnare":5129,"ĠJustice":5130,"Ġearnest":5131,"Ġdisguise":5132,"Ġimagin":5133,"Ġscape":5134,"Ġcontradi":5135,"Ġhunderd":5136,"ĠOfficer":5137,"Ġremembrance":5138,"Ġcelebrate":5139,"Gainst":5140,"Ġsinews":5141,"Ġfulfill":5142,"Ġbottom":5143,"Ġdomestic":5144,"Ġdilig":5145,"Ġlanguish":5146,"Ġpeculiar":5147,"Ġpetty":5148,"Ġprotect":5149,"Ġnaked":5150,"Ġrejoyce":5151,"ĠAegypt":5152,"ĠHENRY":5153,"ĠBehold":5154,"ĠDalila":5155,"ĠWoolf":5156,"ĠWinchester":5157,"ĠRoyal":5158,"Ġsincerely":5159,"ĠPhilosoph":5160,"ĠShakespear":5161,"Ġmonosyllables":5162,"ĠMagistrates":5163,"!)":5164,"',":5165,"'m":5166,"),":5167,".)":5168,".,":5169,"43":5170,"49":5171,"67":5172,"71":5173,"94":5174,"97":5175,":--":5176,"AH":5177,"AW":5178,"Ap":5179,"Ang":5180,"Acc":5181,"Bin":5182,"Bre":5183,"Bea":5184,"Bid":5185,"Bro":5186,"Best":5187,"Bore":5188,"Bring":5189,"Bitter":5190,"Bearing":5191,"Brut":5192,"BLES":5193,"Because":5194,"CT":5195,"Cour":5196,"Come":5197,"Cyri":5198,"Cosi":5199,"Castle":5200,"Di":5201,"Des":5202,"Dri":5203,"Dang":5204,"Diss":5205,"Dev":5206,"Dwell":5207,"DER":5208,"Didst":5209,"Dishon":5210,"Ear":5211,"Ease":5212,"Edition":5213,"EHO":5214,"Eye":5215,"Fe":5216,"Fly":5217,"Fill":5218,"Fall":5219,"Fore":5220,"Fool":5221,"Favour":5222,"Gn":5223,"HN":5224,"Hon":5225,"High":5226,"Home":5227,"Happ":5228,"HAT":5229,"Happy":5230,"Half":5231,"HORACE":5232,"IG":5233,"IL":5234,"Ith":5235,"IES":5236,"Idol":5237,"Jud":5238,"LO":5239,"LY":5240,"Lod":5241,"Lay":5242,"Light":5243,"Lie":5244,"List":5245,"Lead":5246,"Lab":5247,"Life":5248,"Lift":5249,"LIS":5250,"LORD":5251,"Latin":5252,"Living":5253,"Mr":5254,"Men":5255,"Met":5256,"Ment":5257,"Mad":5258,"Mee":5259,"Make":5260,"Move":5261,"Mother":5262,"Milton":5263,"Nove":5264,"None":5265,"NING":5266,"NET":5267,"Oh":5268,"Out":5269,"OHN":5270,"Pre":5271,"Pri":5272,"Prom":5273,"Port":5274,"Pull":5275,"Prin":5276,"Part":5277,"Present":5278,"Puts":5279,"Res":5280,"Ran":5281,"Right":5282,"Rose":5283,"Rend":5284,"Rough":5285,"Reg":5286,"Rob":5287,"Reve":5288,"Sea":5289,"Sem":5290,"Seas":5291,"Self":5292,"Sons":5293,"Save":5294,"SIR":5295,"Summers":5296,"TE":5297,"Take":5298,"Time":5299,"Turn":5300,"TON":5301,"Times":5302,"Touch":5303,"Temper":5304,"Us":5305,"UPON":5306,"Visit":5307,"VAH":5308,"Went":5309,"WHAT":5310,"XII":5311,"XIII":5312,"XIV":5313,"XIX":5314,"ald":5315,"aal":5316,"aver":5317,"awn":5318,"aild":5319,"bd":5320,"bil":5321,"bus":5322,"both":5323,"batter":5324,"cu":5325,"cing":5326,"ced":5327,"cere":5328,"cur":5329,"cad":5330,"cus":5331,"cue":5332,"cip":5333,"come":5334,"cover":5335,"copy":5336,"du":5337,"des":5338,"don":5339,"dst":5340,"del":5341,"dain":5342,"dist":5343,"dens":5344,"draw":5345,"eth":5346,"eph":5347,"equ":5348,"eels":5349,"eople":5350,"epping":5351,"fed":5352,"fast":5353,"find":5354,"found":5355,"fts":5356,"face":5357,"friend":5358,"frag":5359,"famous":5360,"first":5361,"fric":5362,"fax":5363,"fixed":5364,"gy":5365,"get":5366,"god":5367,"gid":5368,"gare":5369,"gian":5370,"gled":5371,"girt":5372,"here":5373,"ham":5374,"had":5375,"hem":5376,"held":5377,"house":5378,"hib":5379,"ik":5380,"ias":5381,"iour":5382,"iall":5383,"ict":5384,"iph":5385,"ipp":5386,"iable":5387,"iction":5388,"iena":5389,"ju":5390,"jur":5391,"ky":5392,"kly":5393,"kind":5394,"lt":5395,"low":5396,"lay":5397,"lose":5398,"lick":5399,"lings":5400,"love":5401,"lian":5402,"lave":5403,"lov":5404,"little":5405,"lips":5406,"lids":5407,"mo":5408,"mes":5409,"men":5410,"mind":5411,"mine":5412,"much":5413,"mov":5414,"mper":5415,"making":5416,"mbling":5417,"nel":5418,"nall":5419,"nell":5420,"nish":5421,"nity":5422,"nance":5423,"neath":5424,"nets":5425,"oe":5426,"oon":5427,"oath":5428,"occ":5429,"oft":5430,"oars":5431,"oggs":5432,"pet":5433,"ply":5434,"pent":5435,"pers":5436,"pell":5437,"pake":5438,"part":5439,"pides":5440,"perty":5441,"rh":5442,"ration":5443,"sear":5444,"saw":5445,"sial":5446,"tre":5447,"tir":5448,"tch":5449,"tick":5450,"tto":5451,"tles":5452,"tars":5453,"times":5454,"twixt":5455,"ued":5456,"ung":5457,"ucc":5458,"uilt":5459,"uable":5460,"unto":5461,"uces":5462,"ural":5463,"ugl":5464,"van":5465,"vow":5466,"ved":5467,"var":5468,"val":5469,"vol":5470,"vious":5471,"vish":5472,"vity":5473,"wing":5474,"wra":5475,"wage":5476,"weet":5477,"watch":5478,"ways":5479,"xious":5480,"yth":5481,"yle":5482,"yard":5483,"yrann":5484,"ygian":5485,"zz":5486,"zor":5487,"zing":5488,"Ġiv":5489,"Ġrough":5490,"Ġ--------------------------------":5491,"ĠWhile":5492,"Ġ----------------------------":5493,"ths":5494,"thia":5495,"thors":5496,"Ġthin":5497,"Ġthorn":5498,"Ġthred":5499,"Ġthrown":5500,"Ġthrows":5501,"Ġthresh":5502,"Ġthanks":5503,"Ġthrice":5504,"Ġaz":5505,"Ġaer":5506,"Ġapt":5507,"Ġaire":5508,"Ġagg":5509,"Ġaverse":5510,"ina":5511,"inent":5512,"inion":5513,"inous":5514,"inence":5515,"inely":5516,"inated":5517,"inary":5518,"Ġsea":5519,"Ġsow":5520,"Ġsut":5521,"Ġsal":5522,"Ġsly":5523,"Ġsand":5524,"Ġsnow":5525,"Ġseas":5526,"Ġsym":5527,"Ġsia":5528,"Ġsides":5529,"Ġsize":5530,"Ġsowr":5531,"Ġsourse":5532,"Ġsearch":5533,"eron":5534,"erate":5535,"erish":5536,"erity":5537,"erries":5538,"nds":5539,"ndred":5540,"Ġwth":5541,"Ġwain":5542,"Ġwight":5543,"Ġwall":5544,"Ġward":5545,"Ġworn":5546,"Ġwrin":5547,"Ġwears":5548,"Ġwip":5549,"Ġwail":5550,"Ġwily":5551,"Ġwakes":5552,"Ġwrest":5553,"Ġwaste":5554,"Ġwoes":5555,"Ġwiles":5556,"Ġwires":5557,"Ġwolves":5558,"Ġwinters":5559,"Ġhed":5560,"Ġhom":5561,"Ġhous":5562,"Ġhie":5563,"Ġhang":5564,"Ġhier":5565,"Ġhook":5566,"Ġhusband":5567,"Ġhudd":5568,"Ġow":5569,"Ġori":5570,"Ġoil":5571,"Ġomit":5572,"Ġobt":5573,"Ġowe":5574,"Ġomitted":5575,"Ġomission":5576,"Ġooz":5577,"Ġonde":5578,"reet":5579,"requent":5580,"oubl":5581,"oubt":5582,"Ġmar":5583,"Ġmere":5584,"Ġmort":5585,"Ġmaz":5586,"Ġmuse":5587,"Ġmult":5588,"Ġmask":5589,"Ġmaking":5590,"Ġmarriage":5591,"Ġmoment":5592,"Ġmillions":5593,"ison":5594,"isies":5595,"isera":5596,"Ġfed":5597,"Ġfain":5598,"Ġfence":5599,"Ġfelt":5600,"Ġfuri":5601,"Ġfester":5602,"Ġflew":5603,"Ġfurious":5604,"Ġfickle":5605,"Ġbill":5606,"Ġbord":5607,"Ġbare":5608,"Ġbab":5609,"Ġbark":5610,"Ġbrown":5611,"Ġbrows":5612,"Ġbays":5613,"Ġborrow":5614,"Ġbird":5615,"Ġbolt":5616,"Ġbereft":5617,"Ġtor":5618,"Ġtir":5619,"Ġtam":5620,"Ġtast":5621,"Ġtres":5622,"Ġtame":5623,"Ġtun":5624,"Ġtab":5625,"Ġtap":5626,"Ġtail":5627,"Ġtale":5628,"Ġtaint":5629,"Ġtreat":5630,"Ġtalk":5631,"Ġturns":5632,"Ġtrance":5633,"Ġtaken":5634,"eso":5635,"esse":5636,"essel":5637,"esbian":5638,"oned":5639,"onishment":5640,"orp":5641,"orch":5642,"orter":5643,"orick":5644,"orcer":5645,"ata":5646,"ati":5647,"aten":5648,"aters":5649,"atick":5650,"atona":5651,"lling":5652,"enc":5653,"enu":5654,"ened":5655,"enom":5656,"eness":5657,"enus":5658,"enem":5659,"ences":5660,"Ġdy":5661,"Ġder":5662,"Ġdal":5663,"Ġdight":5664,"Ġdrou":5665,"Ġdaz":5666,"Ġdign":5667,"Ġdrag":5668,"Ġdaring":5669,"eams":5670,"earied":5671,"ĠĠĠĠĠĠĠĠĠĠĠĠĠĠĠĠĠĠĠĠĠĠĠĠĠĠĠĠĠĠĠĠĠĠĠĠĠĠĠĠĠĠĠ":5672,"ĠĠĠĠĠĠĠĠĠĠĠĠĠĠĠĠĠĠĠĠĠĠĠĠĠĠĠĠĠĠĠĠĠĠĠĠĠĠĠĠĠĠĠĠĠ":5673,"Ġcre":5674,"Ġcle":5675,"Ġcas":5676,"Ġcun":5677,"Ġcop":5678,"Ġcull":5679,"Ġcark":5680,"Ġcred":5681,"Ġceast":5682,"Ġcaught":5683,"Ġcoll":5684,"Ġcrest":5685,"Ġcater":5686,"Ġcoin":5687,"Ġcarri":5688,"Ġcamp":5689,"Ġcurs":5690,"Ġcurb":5691,"Ġcoward":5692,"Ġcerto":5693,"Ġcreep":5694,"Ġcottage":5695,"Ġlif":5696,"Ġlose":5697,"Ġlag":5698,"Ġlower":5699,"Ġlaz":5700,"Ġlink":5701,"Ġleasure":5702,"Ġlining":5703,"Ġpay":5704,"Ġpent":5705,"Ġpill":5706,"Ġpain":5707,"Ġpoy":5708,"Ġpaw":5709,"Ġpack":5710,"Ġpair":5711,"Ġprone":5712,"Ġpowre":5713,"Ġnod":5714,"Ġnest":5715,"Ġnine":5716,"Ġnau":5717,"Ġnelle":5718,"Ġnuptial":5719,"star":5720,"stru":5721,"stance":5722,"stret":5723,"stery":5724,"stepping":5725,"street":5726,"inging":5727,"Ġtore":5728,"Ġtool":5729,"Ġtomb":5730,"ann":5731,"anet":5732,"anim":5733,"anza":5734,"anctu":5735,"Ġinex":5736,"Ġincid":5737,"Ġincredible":5738,"Ġinherit":5739,"Than":5740,"Those":5741,"Thence":5742,"Things":5743,"Think":5744,"Thither":5745,"Threat":5746,"Therfore":5747,"owl":5748,"owred":5749,"edia":5750,"edience":5751,"edges":5752,"edication":5753,"omin":5754,"itor":5755,"itous":5756,"itic":5757,"itation":5758,"itness":5759,"arce":5760,"arrow":5761,"arrels":5762,"Ġgust":5763,"Ġgau":5764,"Ġgames":5765,"Ġgrat":5766,"Ġgiov":5767,"Ġgorgeous":5768,"irl":5769,"irm":5770,"iring":5771,"irable":5772,"irmity":5773,"cely":5774,"leet":5775,"leep":5776,"lected":5777,"Ġwhist":5778,"Ġwhets":5779,"Ġwhilst":5780,"Ġwheels":5781,"Ġwhirl":5782,"set":5783,"sell":5784,"sembly":5785,"sembl":5786,"ĠInd":5787,"ĠIles":5788,"ĠInto":5789,"chers":5790,"chool":5791,"choes":5792,"chordon":5793,"oty":5794,"otent":5795,"otous":5796,"eter":5797,"etic":5798,"etime":5799,"etatis":5800,"etween":5801,"Ġhab":5802,"Ġhail":5803,"Ġhainous":5804,"rac":5805,"ravail":5806,"rama":5807,"ĠSm":5808,"ĠSore":5809,"ĠSee":5810,"ĠSist":5811,"ĠSelf":5812,"ĠSuch":5813,"ĠSto":5814,"ĠSome":5815,"ĠSec":5816,"ĠSav":5817,"ĠSub":5818,"ĠSands":5819,"ĠSyl":5820,"ĠSup":5821,"ĠSAM":5822,"ĠSupp":5823,"ĠSkie":5824,"ĠSummer":5825,"ĠSiena":5826,"ĠSisera":5827,"ĠSorcer":5828,"ĠSanctu":5829,"ĠSchool":5830,"utes":5831,"uted":5832,"uties":5833,"eles":5834,"elve":5835,"elic":5836,"elter":5837,"elief":5838,"eliest":5839,"Ġwithal":5840,"Ġwithstand":5841,"rive":5842,"Ġshre":5843,"Ġshed":5844,"Ġshell":5845,"Ġshun":5846,"Ġsheep":5847,"Ġshake":5848,"Ġshag":5849,"Ġshears":5850,"Ġshown":5851,"Ġshatter":5852,"Ġshroud":5853,"Ġshuts":5854,"Ġshorter":5855,"Ġshelter":5856,"earth":5857,"earning":5858,"earled":5859,"ereus":5860,"amy":5861,"amins":5862,"odies":5863,"Ġstat":5864,"Ġsting":5865,"Ġstare":5866,"Ġstart":5867,"Ġstress":5868,"Ġstock":5869,"Ġstony":5870,"Ġstaff":5871,"Ġstops":5872,"Ġsteam":5873,"Ġstearing":5874,"Ġren":5875,"Ġrenow":5876,"Ġrepl":5877,"Ġreward":5878,"Ġreins":5879,"Ġrecks":5880,"Ġrevel":5881,"Ġeat":5882,"Ġeight":5883,"Ġeither":5884,"Ġecho":5885,"alent":5886,"ality":5887,"alians":5888,"Ġbell":5889,"Ġbegu":5890,"iddy":5891,"imm":5892,"ims":5893,"imate":5894,"imps":5895,"imney":5896,"ayes":5897,"urd":5898,"urther":5899,"asp":5900,"ason":5901,"asie":5902,"asph":5903,"asies":5904,"asper":5905,"verty":5906,"rol":5907,"rop":5908,"rovers":5909,"rocal":5910,"adia":5911,"Ġmyster":5912,"Ġmystery":5913,"Ġones":5914,"Ġonward":5915,"Ġmeed":5916,"Ġnotice":5917,"ĠLe":5918,"ĠLight":5919,"ĠLud":5920,"ĠLiver":5921,"ĠLook":5922,"ĠLute":5923,"ĠLoc":5924,"ĠLover":5925,"ĠLeasure":5926,"ĠLamp":5927,"ĠLAW":5928,"ĠLesbian":5929,"ĠLatona":5930,"ĠLearning":5931,"Whil":5932,"estim":5933,"estures":5934,"Them":5935,"ilest":5936,"ilist":5937,"ilian":5938,"ained":5939,"ĠPat":5940,"ĠPear":5941,"ĠProm":5942,"ĠPag":5943,"ĠPass":5944,"ĠPens":5945,"ĠPray":5946,"ĠPalm":5947,"ĠPatience":5948,"ĠPAS":5949,"ĠPomp":5950,"ĠPeople":5951,"Ġforrest":5952,"Ġforfeit":5953,"ĠAT":5954,"ĠAy":5955,"ĠAle":5956,"ĠAct":5957,"ĠApp":5958,"ĠAcc":5959,"ĠAsh":5960,"ĠAbra":5961,"ĠAires":5962,"ĠAthen":5963,"ĠAreth":5964,"ĠAfric":5965,"ighted":5966,"ĠHa":5967,"ĠHor":5968,"ĠHam":5969,"ĠHast":5970,"ĠHind":5971,"ĠHand":5972,"ĠHag":5973,"ĠHears":5974,"ĠHec":5975,"ĠHIS":5976,"ĠHappy":5977,"ĠHelm":5978,"ĠHusband":5979,"ĠHenry":5980,"allenge":5981,"ĠMer":5982,"ĠMis":5983,"ĠMor":5984,"ĠMid":5985,"ĠMist":5986,"ĠMirth":5987,"ĠMOR":5988,"ĠMeasure":5989,"ĠMAI":5990,"ĠMasters":5991,"ĠMantle":5992,"ĠMurther":5993,"Ġasunder":5994,"Ġaspire":5995,"ĠCH":5996,"ĠCre":5997,"ĠCat":5998,"ĠCar":5999,"ĠCell":6000,"ĠCare":6001,"ĠChe":6002,"ĠCip":6003,"ĠCock":6004,"ĠCome":6005,"ĠCouch":6006,"ĠCarri":6007,"ĠCounsel":6008,"Ġallay":6009,"romwell":6010,"esso":6011,"ĠGO":6012,"ĠGard":6013,"ĠGive":6014,"ĠGray":6015,"ĠGates":6016,"ĠGener":6017,"ĠGrove":6018,"ĠGroves":6019,"Ġorbs":6020,"Ġissu":6021,"eeks":6022,"eeces":6023,"rue":6024,"rus":6025,"rush":6026,"ructed":6027,"Ġvall":6028,"Ġvail":6029,"Ġvoc":6030,"Ġvouch":6031,"Ġvary":6032,"Ġvaul":6033,"Ġvoid":6034,"Ġvulgar":6035,"Ġvenom":6036,"Ġvilest":6037,"ctate":6038,"Ġsole":6039,"Ġsoil":6040,"Ġsoild":6041,"Ġsober":6042,"Ġsofter":6043,"Ġsoever":6044,"Ġsollic":6045,"ĠBE":6046,"ĠBY":6047,"ĠBr":6048,"ĠBow":6049,"ĠBed":6050,"ĠBear":6051,"ĠBee":6052,"ĠBull":6053,"ĠBoth":6054,"ĠBoy":6055,"ĠBatt":6056,"ĠBridge":6057,"ĠBays":6058,"ĠBowre":6059,"ĠBards":6060,"ĠBird":6061,"ĠBecause":6062,"ĠBaal":6063,"ĠBerries":6064,"erscription":6065,"usal":6066,"uscan":6067,"Ġherb":6068,"Ġheroic":6069,"Ġsped":6070,"Ġsple":6071,"Ġspect":6072,"Ġspoil":6073,"Ġsprung":6074,"rouble":6075,"---------":6076,"Ġsubl":6077,"Ġsumm":6078,"Ġsustain":6079,"Ġsuccess":6080,"Offer":6081,"ĠTur":6082,"ĠTrin":6083,"ĠTab":6084,"ĠTap":6085,"ĠTown":6086,"ĠTyr":6087,"ĠText":6088,"ĠTongue":6089,"ĠToward":6090,"ĠTroy":6091,"ĠTetra":6092,"ĠTyrian":6093,"ĠTHY":6094,"ĠTIM":6095,"ĠTyre":6096,"ĠTravail":6097,"elld":6098,"elling":6099,"ongs":6100,"ongst":6101,"ĠFre":6102,"ĠFro":6103,"ĠFate":6104,"ĠFav":6105,"ĠFOR":6106,"ĠFountain":6107,"ĠFAI":6108,"ĠFestiv":6109,"ĠForest":6110,"ĠFleet":6111,"resist":6112,"Ġchear":6113,"Ġchast":6114,"Ġchide":6115,"Ġchaste":6116,"Ġchoic":6117,"Ġchorus":6118,"Ġchallenge":6119,"Ġcheeks":6120,"emm":6121,"emin":6122,"indic":6123,"anta":6124,"antic":6125,"Ġunb":6126,"Ġunth":6127,"Ġunion":6128,"Ġunif":6129,"Ġunus":6130,"Ġunbl":6131,"Ġunable":6132,"Ġunless":6133,"Ġunarm":6134,"Ġunsu":6135,"Ġunrep":6136,"Ġunlike":6137,"Ġunknown":6138,"Ġunchaste":6139,"Ġunemph":6140,"Ġunequ":6141,"Ġungod":6142,"Ġheed":6143,"Ġheel":6144,"Ġheere":6145,"Ġheight":6146,"Ġnov":6147,"Ġnook":6148,"isting":6149,"istot":6150,"istles":6151,"ichor":6152,"ĠOre":6153,"ĠOld":6154,"ĠOur":6155,"ĠOak":6156,"ĠOcc":6157,"ĠOde":6158,"ĠOmitted":6159,"ĠOrac":6160,"phet":6161,"ĠEu":6162,"ĠEv":6163,"ĠEter":6164,"ĠEns":6165,"ĠEcl":6166,"ĠEuri":6167,"ĠEdition":6168,"ĠEcho":6169,"ĠENG":6170,"ĠEpitaph":6171,"andal":6172,"atever":6173,"Ġloy":6174,"Ġloving":6175,"quest":6176,"quie":6177,"quainted":6178,"Ġking":6179,"Ġkill":6180,"Ġcomment":6181,"Ġcomely":6182,"Ġcomfort":6183,"Ġlip":6184,"Ġlips":6185,"Ġliken":6186,"Ġdol":6187,"Ġdoct":6188,"Ġdoings":6189,"Ġdoff":6190,"Ġdoors":6191,"Ġblab":6192,"Ġblaz":6193,"Ġblows":6194,"Ġblund":6195,"Ġblithe":6196,"Ġblasph":6197,"oln":6198,"olv":6199,"olve":6200,"olsom":6201,"ulent":6202,"ĠDi":6203,"ĠDes":6204,"ĠDow":6205,"ĠDam":6206,"ĠDun":6207,"ĠDost":6208,"ĠDeep":6209,"ĠDone":6210,"ĠDown":6211,"ĠDale":6212,"ĠDames":6213,"ĠDungeon":6214,"ĠDivine":6215,"ĠDonna":6216,"ĠDedication":6217,"ĠDrama":6218,"endeav":6219,"endix":6220,"Ġconcl":6221,"Ġconject":6222,"Ġconceiv":6223,"Ġconvers":6224,"Ġconven":6225,"Ġconquer":6226,"ics":6227,"icient":6228,"icament":6229,"iceable":6230,"icacy":6231,"Infer":6232,"ĠWit":6233,"ĠWall":6234,"ĠWild":6235,"ĠWrit":6236,"Ġfable":6237,"Ġfarew":6238,"Ġfaery":6239,"Ġdeer":6240,"Ġdeck":6241,"Ġdefe":6242,"Ġdefer":6243,"Ġdeject":6244,"Ġdebt":6245,"Ġdeceive":6246,"ĠGodlike":6247,"pper":6248,"arded":6249,"rowle":6250,"rowess":6251,"rowns":6252,"Ġplead":6253,"Ġplots":6254,"Ġpluck":6255,"Ġplumes":6256,"Ġplenty":6257,"una":6258,"unc":6259,"uno":6260,"ivid":6261,"iveness":6262,"olds":6263,"ured":6264,"osts":6265,"ostroph":6266,"Ġjo":6267,"Ġflo":6268,"Ġfling":6269,"Ġflour":6270,"Ġfloud":6271,"ĠNow":6272,"ĠNot":6273,"ĠNect":6274,"ĠNotes":6275,"ĠNuptial":6276,"ĠNereus":6277,"ĠRain":6278,"ĠRose":6279,"ĠRep":6280,"ĠRome":6281,"ĠRev":6282,"ĠRites":6283,"Ġhears":6284,"Ġhearse":6285,"eadows":6286,"Ġupward":6287,"osure":6288,"ospit":6289,"Ġsaith":6290,"Ġsaving":6291,"Ġann":6292,"Ġanon":6293,"Ġanointed":6294,"ĠThrough":6295,"ĠThrone":6296,"oples":6297,"Ġsex":6298,"Ġseed":6299,"Ġsevere":6300,"ounding":6301,"ilement":6302,"orno":6303,"Ġglass":6304,"Ġglade":6305,"Ġglitter":6306,"Ġglimmer":6307,"Ġstreets":6308,"Ġstretch":6309,"Ġworm":6310,"Ġwors":6311,"Ġmanly":6312,"Ġmanhood":6313,"Ġmansion":6314,"Ġmanner":6315,"Ġusage":6316,"Ġusurp":6317,"Ġarri":6318,"Ġarts":6319,"Ġarray":6320,"Ġexpos":6321,"Ġexcess":6322,"Ġexercise":6323,"Ġraig":6324,"Ġrains":6325,"Ġalive":6326,"Ġaloud":6327,"Ġalthough":6328,"Ġalway":6329,"Ġaloof":6330,"Ġamaz":6331,"Ġamber":6332,"Ġamiss":6333,"Ġambit":6334,"Ġgrew":6335,"Ġgreedy":6336,"Ġ1020":6337,"Ġ1010":6338,"icks":6339,"ickly":6340,"range":6341,"Ġsworn":6342,"Ġsweep":6343,"Ġswart":6344,"Ġswarm":6345,"Ġenc":6346,"Ġenmity":6347,"Ġenameld":6348,"Ġenroll":6349,"Ġ1630":6350,"Ġ1670":6351,"athe":6352,"others":6353,"rinx":6354,"Ġproperty":6355,"abb":6356,"abil":6357,"about":6358,"Ġabuse":6359,"Ġwhereof":6360,"Forget":6361,"Ġseeks":6362,"Ġclotted":6363,"Ġruth":6364,"Ġrust":6365,"Ġruff":6366,"uding":6367,"uded":6368,"ĠJaw":6369,"ĠJoll":6370,"Ġearst":6371,"Ġearliest":6372,"erton":6373,"ertie":6374,"ĠVers":6375,"ĠVac":6376,"ĠVertue":6377,"ĠVales":6378,"Ġrip":6379,"Ġride":6380,"Ġrife":6381,"Ġrigg":6382,"Ġrivi":6383,"Ġripe":6384,"Ġrills":6385,"Ġrigid":6386,"Ġriotous":6387,"agle":6388,"agion":6389,"Ġdisse":6390,"Ġdisson":6391,"Ġdisapp":6392,"Ġdispose":6393,"ĠĠĠĠĠĠĠĠĠĠĠĠĠĠĠĠĠĠĠĠĠĠĠĠĠĠĠĠĠĠĠĠĠĠĠĠĠĠĠĠĠĠĠĠĠĠĠĠĠĠ":6394,"Ġthereof":6395,"Ġthereby":6396,"Ġperple":6397,"Ġpermit":6398,"Ġperceiv":6399,"Ġperceive":6400,"Ġperdition":6401,"Ġperpet":6402,"arkle":6403,"pled":6404,"play":6405,"asses":6406,"assail":6407,"ĠHeavenly":6408,"aces":6409,"acles":6410,"acquainted":6411,"blin":6412,"Ġquire":6413,"Ġquires":6414,"Ġquench":6415,"Ġselfe":6416,"Ġweed":6417,"Ġwept":6418,"onsisten":6419,"Ġgoodly":6420,"Ġgoodnes":6421,"Ġimper":6422,"Ġtrump":6423,"Ġoffend":6424,"Ġofferd":6425,"Ġoffering":6426,"eeting":6427,"Ġsliding":6428,"Ġslumbring":6429,"Ġslaver":6430,"Ġvernall":6431,"urnal":6432,"Ġlonger":6433,"ĠCha":6434,"ĠChamber":6435,"ONIST":6436,"depart":6437,"arting":6438,"artial":6439,"Ġwayes":6440,"Ġpract":6441,"ression":6442,"iprocal":6443,"neth":6444,"shine":6445,"shipt":6446,"Ġadj":6447,"Ġadmit":6448,"Ġadded":6449,"Ġscore":6450,"Ġscant":6451,"Ġscaly":6452,"Ġscrivi":6453,"Ġrobe":6454,"Ġrobes":6455,"Ġbreast":6456,"aws":6457,"Ġdespo":6458,"Ġdesolation":6459,"Ġletters":6460,"Ġ620":6461,"Ġ630":6462,"Ġ640":6463,"Ġ650":6464,"Ġ610":6465,"Ġ690":6466,"Ġolder":6467,"Ġdelay":6468,"Ġdelicious":6469,"Ġdelicacy":6470,"Ġgrass":6471,"Ġgraces":6472,"Ġsomewhat":6473,"Ġhonied":6474,"Ġhonourable":6475,"Ġbested":6476,"Ġprecious":6477,"Ġprefixed":6478,"ails":6479,"ailing":6480,"ĠStones":6481,"ĠStygian":6482,"ĠStanza":6483,"Ġsmite":6484,"Ġsmart":6485,"Ġsmiling":6486,"Ġendeavour":6487,"ginal":6488,"ensive":6489,"Ġappro":6490,"Ġapproach":6491,"Ġapplause":6492,"Ġappendix":6493,"Ġtwise":6494,"Ġtwice":6495,"Ġtrib":6496,"Ġtriple":6497,"Ġtricks":6498,"Ġcalling":6499,"Ġcalled":6500,"Ġevents":6501,"Ġsecular":6502,"Ġglorifie":6503,"ĠKid":6504,"ĠKey":6505,"ĠKnight":6506,"ĠKING":6507,"Ġfounded":6508,"Ġfoundations":6509,"Ġguid":6510,"Ġguest":6511,"Ġguided":6512,"Ġunderstand":6513,"Ġundergo":6514,"Ġunderneath":6515,"Ġremed":6516,"Ġremit":6517,"Ġremain":6518,"Ġremove":6519,"Ġremark":6520,"Ġcontest":6521,"Ġcontemn":6522,"Ġcontrovers":6523,"Ġcontagion":6524,"Only":6525,"iery":6526,"erdon":6527,"ancing":6528,"Ġrepast":6529,"Ġrepair":6530,"Ġreprod":6531,"Ġrepeated":6532,"alem":6533,"crib":6534,"eca":6535,"ecially":6536,"ronounc":6537,"ymen":6538,"Ġreside":6539,"Ġresign":6540,"Ġresidence":6541,"Ġrescue":6542,"Ġresounding":6543,"Ġjustly":6544,"Ġjustice":6545,"Ġpoco":6546,"Ġpresage":6547,"Ġpreserv":6548,"Ġpreserved":6549,"Ġreading":6550,"ĠPhill":6551,"ĠArch":6552,"ĠAristot":6553,"Ġsweets":6554,"Ġsweetnes":6555,"Ġfeat":6556,"Ġleggi":6557,"Ġ24":6558,"Ġ230":6559,"Ġ240":6560,"Ġ250":6561,"Ġ270":6562,"Ġ280":6563,"Ġ260":6564,"Ġdeaths":6565,"Ġdownward":6566,"Ġcommits":6567,"cled":6568,"feu":6569,"Ġhole":6570,"Ġhovering":6571,"Ġmisery":6572,"Ġbringing":6573,"Ġkeeping":6574,"HEN":6575,"HERE":6576,"beg":6577,"been":6578,"iae":6579,"iah":6580,"Ġbetwixt":6581,"ĠSonnet":6582,"Ġattire":6583,"Ġattended":6584,"Ġattorno":6585,"Beyond":6586,"whom":6587,"whose":6588,"while":6589,"whelm":6590,"Ġbrok":6591,"Ġbrothers":6592,"Ġassert":6593,"Ġasswage":6594,"Ġsinners":6595,"Ġsincere":6596,"Ġpartic":6597,"Ġpeacefull":6598,"Ġretir":6599,"Ġretire":6600,"Ġretains":6601,"Ġretired":6602,"Ġretained":6603,"Shakesp":6604,"Shiph":6605,"Ġ48":6606,"Ġ420":6607,"Ġ430":6608,"Ġ440":6609,"Ġ450":6610,"Ġ410":6611,"Ġ470":6612,"Ġ480":6613,"Ġ490":6614,"Ġ460":6615,"Ġtrade":6616,"Ġtravels":6617,"Ġdivide":6618,"Ġpurity":6619,"Ġpasses":6620,"Ġpassing":6621,"Ġpassions":6622,"Ġpassages":6623,"Ġgoddess":6624,"ĠSpells":6625,"Ġjoyous":6626,"Ġimpious":6627,"Ġimprison":6628,"Ġimpression":6629,"ociate":6630,"Ġentra":6631,"Ġentrance":6632,"Ġentomb":6633,"Ġsights":6634,"Ġlowly":6635,"ĠAmor":6636,"ĠAmber":6637,"ĠAmmon":6638,"ĠAmbro":6639,"Ġrightfull":6640,"Quel":6641,"Qual":6642,"Quando":6643,"Quickly":6644,"Unmind":6645,"Ġrh":6646,"Ġrott":6647,"Ġaffright":6648,"Ġfeard":6649,"enger":6650,"ĠSuns":6651,"forth":6652,"Ġ300":6653,"Ġ400":6654,"Ġaccom":6655,"Ġaccount":6656,"Ġsilk":6657,"Ġwait":6658,"Ġwaight":6659,"Ġwavering":6660,"Ġwinding":6661,"Ġhunt":6662,"Ġhugg":6663,"Ġhundred":6664,"Ġfriendship":6665,"atcht":6666,"Ġdoune":6667,"Ġpeer":6668,"Ġpeoples":6669,"Ġprinci":6670,"Ġprinters":6671,"Ġintrod":6672,"Ġreveng":6673,"Ġbeheld":6674,"Ġservile":6675,"XXI":6676,"nesse":6677,"Ġ520":6678,"Ġ530":6679,"Ġ540":6680,"Ġ550":6681,"Ġ510":6682,"Ġ570":6683,"Ġ580":6684,"Ġ590":6685,"Ġ560":6686,"Ġ820":6687,"Ġ830":6688,"Ġ840":6689,"Ġ850":6690,"Ġ870":6691,"Ġ890":6692,"Ġ860":6693,"Ġ920":6694,"Ġ930":6695,"Ġ940":6696,"Ġ950":6697,"Ġ910":6698,"Ġ970":6699,"Ġ980":6700,"Ġ990":6701,"Ġ960":6702,"Ġsouls":6703,"Ġhumm":6704,"Ġhumours":6705,"Ġhumane":6706,"Ġheaviest":6707,"Ġfals":6708,"Ġdeepest":6709,"Ġprivate":6710,"Ġprivil":6711,"ĠPole":6712,"meil":6713,"notes":6714,"Ġ320":6715,"Ġ330":6716,"Ġ340":6717,"Ġ350":6718,"Ġ310":6719,"Ġ370":6720,"Ġ380":6721,"Ġ390":6722,"Ġ360":6723,"Ġ720":6724,"Ġ730":6725,"Ġ740":6726,"Ġ750":6727,"Ġ710":6728,"Ġ770":6729,"Ġ780":6730,"Ġ790":6731,"Ġawa":6732,"Ġawe":6733,"Ġsorcer":6734,"Ġsurc":6735,"Ġsurm":6736,"Ġsurfet":6737,"Ġfallacious":6738,"Ġcareer":6739,"Ġcareful":6740,"Ġcareless":6741,"rides":6742,"Ġemb":6743,"Ġemploy":6744,"Ġeminent":6745,"ĠHerb":6746,"ĠHeret":6747,"ĠHermes":6748,"ĠMany":6749,"Ġneedst":6750,"Ġconsent":6751,"Ġconsolation":6752,"Ġconsider":6753,"Ġ1641":6754,"ĠPhilistine":6755,"Comm":6756,"ESS":6757,"ESENT":6758,"Stre":6759,"Stand":6760,"Strong":6761,"event":6762,"Ġmix":6763,"ontrou":6764,"elty":6765,"alking":6766,"Ġconfine":6767,"ĠIsraels":6768,"Ġ500":6769,"Ġdistra":6770,"Ġdistill":6771,"Ġdistance":6772,"Ġdistinct":6773,"Ġinfamous":6774,"Ġinfirmity":6775,"Ġinfamy":6776,"Therefore":6777,"Thereby":6778,"ĠAlb":6779,"ĠAlp":6780,"ĠAlpheus":6781,"ĠAltars":6782,"Ġvii":6783,"Ġsolemnly":6784,"Ġsuppli":6785,"ĠEarl":6786,"Ġcomply":6787,"Ġcompare":6788,"Ġcompass":6789,"Ġcomparing":6790,"Ġflowr":6791,"Ġflowre":6792,"Ġflowres":6793,"ĠVirginity":6794,"Ġillustrious":6795,"Ġsounds":6796,"Ġwarrant":6797,"Ġwanting":6798,"Ġbespake":6799,"Ġbids":6800,"atters":6801,"Ġparl":6802,"Ġstraight":6803,"Ġstrains":6804,"ĠLaws":6805,"ĠAsk":6806,"ĠAssembly":6807,"Ġcheck":6808,"Ġcheif":6809,"Ġdefend":6810,"Ġdefiance":6811,"Ġjudg":6812,"Ġjudges":6813,"Ġfollowing":6814,"Ġ600":6815,"izon":6816,"ized":6817,"Ġiii":6818,"Ġwomen":6819,"Ġhelm":6820,"Ġtells":6821,"Ġtransport":6822,"Ġdaies":6823,"Ġdawn":6824,"Ġdaign":6825,"Ġlayes":6826,"Ġloudly":6827,"Ġinterest":6828,"Ġinterpose":6829,"Ġinternal":6830,"ĠAuthors":6831,"Ġamongst":6832,"1653":6833,"ibly":6834,"ibus":6835,"Ġwisard":6836,"Ġwisely":6837,"Ġmetric":6838,"Ġmeaning":6839,"Ġboist":6840,"Ġboots":6841,"Ġbeauties":6842,"Ġbede":6843,"Ġleaden":6844,"Ġhappen":6845,"Ġhappiest":6846,"ĠSweet":6847,"ĠSwains":6848,"ĠPrivate":6849,"ĠProv":6850,"ĠMusic":6851,"Ġspeedy":6852,"Ġsubdu":6853,"Ġchariot":6854,"Ġuncon":6855,"Ġuncontrou":6856,"Ġfavours":6857,"Ġrunning":6858,"ĠStarr":6859,"Ġpresenting":6860,"Ġpresented":6861,"ĠEarths":6862,"Ġsleek":6863,"Ġwrote":6864,"Ġharms":6865,"Ġharbour":6866,"Ġharbinger":6867,"Ġbowres":6868,"Ġbelief":6869,"Ġbelongs":6870,"Ġinside":6871,"Ġinsult":6872,"Ġinsolence":6873,"Ġgentl":6874,"Ġstrive":6875,"ĠLyric":6876,"Ġforgo":6877,"Ġforgery":6878,"Ġforgiveness":6879,"Ġtrusted":6880,"ĠKingly":6881,"ERS":6882,"ratitude":6883,"ucing":6884,"ucent":6885,"Ġope":6886,"Ġopenly":6887,"Ġopinion":6888,"Ġdropt":6889,"Ġdropping":6890,"Ġdrooping":6891,"Ġdwells":6892,"Ġdwellings":6893,"Ġlisted":6894,"etta":6895,"etting":6896,"Ġsoftly":6897,"ĠTragic":6898,"ĠFlute":6899,"Ġbreaks":6900,"eousness":6901,"olet":6902,"spread":6903,"ĠUr":6904,"ĠUpon":6905,"ĠUPON":6906,"Ġerst":6907,"Ġairy":6908,"Ġmodest":6909,"Ġmoderate":6910,"Ġmiddle":6911,"Ġlawful":6912,"Ġpastoral":6913,"Ġindivid":6914,"Ġinvok":6915,"Ġinvinc":6916,"Ġgroan":6917,"Ġgroves":6918,"Ġgross":6919,"ĠItalians":6920,"Ġrecord":6921,"Ġrecover":6922,"Ġreconc":6923,"Ġreciprocal":6924,"Ġredoubl":6925,"ĠPlat":6926,"ĠAiry":6927,"Ġsufficient":6928,"ĠOrgan":6929,"Ġdevice":6930,"Ġdevours":6931,"Ġarmes":6932,"XVI":6933,"XVII":6934,"XVIII":6935,"aphim":6936,"doms":6937,"Ġ700":6938,"Ġ800":6939,"Ġharmonious":6940,"Ġfraught":6941,"Ġfurder":6942,"Ġdreaded":6943,"Ġdreadful":6944,"Ġdreadfull":6945,"Ġcasts":6946,"ĠScot":6947,"ĠComm":6948,"ĠCompos":6949,"Ġvaliant":6950,"Ġchiefest":6951,"Ġunfortun":6952,"Ġunfinish":6953,"Ġblessings":6954,"Ġblackest":6955,"Ġdecay":6956,"Ġdeceas":6957,"Ġdecree":6958,"Ġdecides":6959,"Ġriddle":6960,"Ġdoubtful":6961,"Already":6962,"obson":6963,"point":6964,"Ġsonnets":6965,"Ġsisters":6966,"Ġwatchful":6967,"Ġmonument":6968,"Ġmonarch":6969,"Ġmusical":6970,"Ġfancies":6971,"Ġbraver":6972,"Ġterf":6973,"Ġterm":6974,"Ġterror":6975,"Ġtroubled":6976,"Ġcup":6977,"Ġcruelty":6978,"Ġcrystal":6979,"ĠIdolatrous":6980,"Ġrequire":6981,"Ġrequite":6982,"Ġbegun":6983,"ĠApril":6984,"Ġ1270":6985,"ĠMargare":6986,"Ġvowel":6987,"Ġunwary":6988,"Ġunworth":6989,"Ġunweeting":6990,"Ġblissful":6991,"Ġplaying":6992,"Ġextreme":6993,"Ġprayer":6994,"Ġprayers":6995,"Ġafflicted":6996,"Anno":6997,"Goddess":6998,"SONNET":6999,"mans":7000,"manuscript":7001,"Ġ900":7002,"Ġwinged":7003,"Ġobvious":7004,"Ġobedience":7005,"Ġmai":7006,"Ġmoves":7007,"Ġfruits":7008,"Ġfrustrate":7009,"Ġtrembling":7010,"Ġincessant":7011,"Ġincrease":7012,"Ġinconsisten":7013,"Ġinchanter":7014,"Ġinchanted":7015,"Ġstrana":7016,"ĠCountry":7017,"ĠGrace":7018,"Ġconstant":7019,"aunted":7020,"Ġ1000":7021,"Ġprofan":7022,"Ġprofest":7023,"Ġprofane":7024,"Ġviewles":7025,"ANE":7026,"ANS":7027,"ARCA":7028,"Two":7029,"Twill":7030,"Twixt":7031,"pitious":7032,"Ġinglorious":7033,"Ġingrateful":7034,"Ġingratitude":7035,"thority":7036,"Ġsenses":7037,"Ġwearied":7038,"Ġmarks":7039,"Ġfetter":7040,"Ġdirect":7041,"Ġlavers":7042,"Ġinwardly":7043,"Ġhairs":7044,"Ġhairy":7045,"Ġundert":7046,"Ġbends":7047,"Ġfortitude":7048,"ĠAnch":7049,"ĠAttick":7050,"ĠHarp":7051,"ĠHarbinger":7052,"ĠHarapha":7053,"ĠMonument":7054,"Ġvanity":7055,"umphing":7056,"Ġexpress":7057,"Ġexpiate":7058,"Ġprovok":7059,"Ġdispleasure":7060,"Ġpretence":7061,"Ġpretended":7062,"Ġprevented":7063,"Ġjudgement":7064,"Ġwomans":7065,"Ġcorrect":7066,"Ġcorrected":7067,"Ġcorrects":7068,"Ġdifference":7069,"ITY":7070,"Perche":7071,"Swift":7072,"affad":7073,"longs":7074,"Ġoppose":7075,"Ġobserve":7076,"Ġflying":7077,"Ġbarr":7078,"Ġbarbar":7079,"Ġburdens":7080,"Ġtryal":7081,"Ġinstead":7082,"Ġinstinct":7083,"Ġinstructed":7084,"second":7085,"secrated":7086,"Ġhabitation":7087,"Ġrefra":7088,"Ġrefresh":7089,"ashion":7090,"Ġyields":7091,"Ġyielded":7092,"ĠTribes":7093,"Ġfailing":7094,"Ġdegra":7095,"Ġdegree":7096,"Ġdegener":7097,"Ġ1634":7098,"Ġ1638":7099,"Ġdiscern":7100,"Ġdiscover":7101,"Ġdeserts":7102,"ĠInfancy":7103,"Ġemphatic":7104,"Ġdefenceless":7105,"mmed":7106,"undant":7107,"Ġveil":7108,"Ġwedded":7109,"Ġwitnes":7110,"Ġwoods":7111,"Ġhurl":7112,"represent":7113,"Ġmalice":7114,"Ġfinal":7115,"Ġfrolick":7116,"Ġfondly":7117,"Ġdamn":7118,"Ġcolours":7119,"Ġlimits":7120,"Ġlimbs":7121,"Ġpitch":7122,"Ġpunctu":7123,"ĠSphears":7124,"ĠLawn":7125,"ĠHostile":7126,"ĠMagic":7127,"ĠGiants":7128,"rudging":7129,"Ġvolse":7130,"Ġchildren":7131,"ĠElm":7132,"Ġlibertie":7133,"Ġblasted":7134,"ummets":7135,"ĠReign":7136,"ĠTherefore":7137,"Ġabsent":7138,"Ġabsence":7139,"Ġabsurd":7140,"Ġfoolish":7141,"Ġaddrest":7142,"Ġcontemptible":7143,"Ġsufferings":7144,"Ġreasonings":7145,"Ġacceptable":7146,"Expect":7147,"Scarce":7148,"herb":7149,"iii":7150,"jesty":7151,"Ġrowl":7152,"Ġsignes":7153,"Ġsatisfie":7154,"Ġwrongs":7155,"Ġminor":7156,"Ġmutable":7157,"Ġmutual":7158,"Ġmistook":7159,"Ġmassy":7160,"Ġmoving":7161,"Ġbride":7162,"Ġbrief":7163,"Ġbranching":7164,"Ġbattail":7165,"Ġdetra":7166,"Ġdrive":7167,"Ġdreams":7168,"Ġcaus":7169,"Ġcooling":7170,"Ġcaptiv":7171,"Ġcaptive":7172,"Ġcaptivity":7173,"Ġlamentation":7174,"Ġpopol":7175,"Ġpopular":7176,"Ġwheron":7177,"Ġwherunto":7178,"Ġreceived":7179,"Ġbefall":7180,"Ġbefriend":7181,"assembly":7182,"ĠAdv":7183,"ĠHydra":7184,"ĠCloud":7185,"ĠGentle":7186,"ĠBarn":7187,"ĠTrees":7188,"ĠTrent":7189,"ĠTimbre":7190,"ĠEbon":7191,"Ġknock":7192,"Ġdebas":7193,"Ġplanted":7194,"Ġenclin":7195,"Ġencline":7196,"Ġenclos":7197,"Ġfooting":7198,"Ġimbru":7199,"Ġdespis":7200,"Ġdespair":7201,"Ġdescends":7202,"Ġdescended":7203,"Ġaffects":7204,"Ġsilently":7205,"Ġmixture":7206,"Ġdestroyer":7207,"Ġpossession":7208,"Ġindignation":7209,"Ġconstrains":7210,"Ġexcellence":7211,"Ġmeditation":7212,"ĠReligious":7213,"Ġemphasize":7214,"Ġmurmur":7215,"Canz":7216,"Deceiv":7217,"Disp":7218,"New":7219,"fluous":7220,"folded":7221,"headed":7222,"pressive":7223,"ĠUnivers":7224,"Ġastray":7225,"Ġastonishment":7226,"Ġsorts":7227,"Ġsighing":7228,"Ġhealing":7229,"Ġmerit":7230,"Ġmerry":7231,"Ġfuel":7232,"Ġfixed":7233,"Ġbusie":7234,"Ġbusiness":7235,"Ġdwelt":7236,"Ġdemure":7237,"Ġdealt":7238,"Ġdances":7239,"Ġdancing":7240,"Ġdainty":7241,"Ġdainties":7242,"Ġlodg":7243,"Ġlodge":7244,"Ġhaunted":7245,"ĠSlave":7246,"ĠSlaves":7247,"ĠSaturns":7248,"Ġstudies":7249,"ĠPsalms":7250,"ĠPipe":7251,"ĠPipes":7252,"Ġforbidden":7253,"Ġashes":7254,"ĠGolden":7255,"uskind":7256,"Ġspeeches":7257,"ĠWoman":7258,"ĠWindes":7259,"Ġplaces":7260,"Ġprophetic":7261,"Ġdescent":7262,"Ġdescry":7263,"ĠArcady":7264,"ĠArcadia":7265,"ĠArmies":7266,"Ġmischance":7267,"Ġbrooks":7268,"Ġwriting":7269,"Ġcourteous":7270,"Ġcourtesie":7271,"Ġtemperance":7272,"Ġtreason":7273,"Ġtreasure":7274,"ĠCynthia":7275,"ĠCynosure":7276,"ĠEnemy":7277,"Ġarguments":7278,"Arm":7279,"Benighted":7280,"Depart":7281,"ELL":7282,"Fearless":7283,"Guard":7284,"Pluck":7285,"Regain":7286,"Sleep":7287,"Sleek":7288,"Trip":7289,"Triumphing":7290,"Warble":7291,"Warbl":7292,"breaker":7293,"pathize":7294,"xxx":7295,"ĠZeb":7296,"therefore":7297,"Ġsusp":7298,"Ġsuspect":7299,"Ġwreaths":7300,"Ġoblig":7301,"Ġmiracle":7302,"Ġmagnanim":7303,"Ġfleecy":7304,"Ġbereav":7305,"Ġbruis":7306,"Ġbounties":7307,"Ġbounteous":7308,"Ġtumult":7309,"Ġdeaf":7310,"Ġdearest":7311,"Ġdanger":7312,"Ġcovert":7313,"Ġpuo":7314,"Ġpaths":7315,"anthus":7316,"seemed":7317,"seemly":7318,"ĠSyrinx":7319,"ĠSenat":7320,"ĠSilence":7321,"ĠSevern":7322,"ĠServants":7323,"ĠSepulcher":7324,"Ġstarry":7325,"Ġstruck":7326,"Ġstruct":7327,"Ġmeerly":7328,"ĠPRESENT":7329,"ĠPerhaps":7330,"ĠPauls":7331,"ĠHonour":7332,"ĠMatron":7333,"ĠMitre":7334,"ĠContempl":7335,"ĠGreen":7336,"ĠGreek":7337,"Ġvillager":7338,"ĠBlind":7339,"ĠBabe":7340,"ĠBeasts":7341,"Ġsupreme":7342,"Ġchanges":7343,"Ġunexpressive":7344,"Ġnecessity":7345,"Ġnecessary":7346,"ĠOxford":7347,"ĠEgypt":7348,"ĠEgerton":7349,"ĠExercise":7350,"ĠWeeds":7351,"ĠWarriour":7352,"Ġfacsim":7353,"Ġdeclare":7354,"Ġjoints":7355,"Ġjealousie":7356,"ĠRighteousness":7357,"Ġdisposal":7358,"Ġdisposition":7359,"Ġimplore":7360,"Ġpraiers":7361,"Ġpreferring":7362,"Ġcontrary":7363,"Ġcheerfull":7364,"Ġodiously":7365,"Ġfrequently":7366,"Ġstrictly":7367,"Ġstrictest":7368,"Ġpublished":7369,"ĠTrumpets":7370,"Ġacquaint":7371,"Ġtroubles":7372,"Ġmajesty":7373,"Ġmajestick":7374,"Ġhurtfull":7375,"Confess":7376,"Ġcalamities":7377,"Ġcalamitous":7378,"ĠSacrifice":7379,"Ġrebellions":7380,"Ġenthroned":7381,"CHEST":7382,"Contempt":7383,"Daily":7384,"Draws":7385,"Gentle":7386,"ICK":7387,"Nightly":7388,"Nymphs":7389,"Philist":7390,"cinal":7391,"maids":7392,"urable":7393,"Ġzeal":7394,"Ġesp":7395,"Ġessence":7396,"Ġauthority":7397,"Ġavoid":7398,"Ġwidow":7399,"Ġhinders":7400,"Ġmeasur":7401,"Ġmagick":7402,"Ġmercies":7403,"ispering":7404,"Ġfingers":7405,"Ġfuture":7406,"Ġfuner":7407,"Ġfrighted":7408,"Ġfestivals":7409,"Ġbanish":7410,"Ġbleed":7411,"Ġburial":7412,"Ġtangl":7413,"Ġturbulent":7414,"Ġcensure":7415,"Ġlordly":7416,"Ġpiled":7417,"Ġinferior":7418,"Ġiniquity":7419,"Ġgeneral":7420,"ceeded":7421,"ĠSeraphim":7422,"elieve":7423,"ribution":7424,"Ġuphold":7425,"Ġstoop":7426,"Ġstroke":7427,"Ġstubble":7428,"Ġrecompense":7429,"ĠLoves":7430,"ĠLucina":7431,"ĠLATIN":7432,"ĠPersons":7433,"ĠPredicament":7434,"ĠAGONIST":7435,"ĠAgainst":7436,"ĠHesper":7437,"ĠHerds":7438,"ĠMajesty":7439,"ĠMASK":7440,"ĠCrystall":7441,"ĠCowslips":7442,"ĠCounce":7443,"ĠColledge":7444,"ĠCupid":7445,"Ġallowance":7446,"Ġornament":7447,"Ġvigorous":7448,"Ġvapours":7449,"ĠBondage":7450,"ĠBacchus":7451,"ĠTorches":7452,"ĠTraytor":7453,"Ġunshorn":7454,"ĠEthi":7455,"ĠEurope":7456,"ĠElysian":7457,"Ġlikest":7458,"ĠDaisies":7459,"ĠDiana":7460,"ĠWisdoms":7461,"Ġdeceitful":7462,"unkets":7463,"Ġflattering":7464,"Ġfleshly":7465,"ĠREA":7466,"ĠRobber":7467,"Ġsafely":7468,"Ġglistring":7469,"Ġargues":7470,"Ġrarely":7471,"Ġamends":7472,"Ġproportion":7473,"Ġprosperous":7474,"Forsook":7475,"Ġclustring":7476,"Ġrumour":7477,"Ġimitated":7478,"Ġverdit":7479,"Ġgraciously":7480,"Ġprepare":7481,"Ġapprehend":7482,"Ġremorse":7483,"Ġcontinues":7484,"Ġassaults":7485,"Ġpursuit":7486,"Ġimportant":7487,"ĠAmaranthus":7488,"Ġcounterfeit":7489,"Ġembrace":7490,"ESTIES":7491,"Ġinflicted":7492,"Ġtranslucent":7493,"Ġwritten":7494,"Ġrelieves":7495,"ĠPluto":7496,"Ġinnumerable":7497,"Ġunparallel":7498,"Ġexceeding":7499,"Ġsensualty":7500,"Ġvanquisht":7501,"ĠPalestine":7502,"Smooth":7503,"Ġdetermining":7504,"Ġthreatnings":7505,"Ġcontradiction":7506,"Ġdiligent":7507,"Ġprotection":7508,"Angel":7509,"According":7510,"Beauty":7511,"Brutus":7512,"Cyriack":7513,"Driving":7514,"Dishonour":7515,"EHOVAH":7516,"LISH":7517,"Mentre":7518,"Private":7519,"Regard":7520,"Semichor":7521,"cadem":7522,"jugal":7523,"Ġ-----------------------------------------":7524,"Ġ------------------------------":7525,"Ġthreds":7526,"Ġaggra":7527,"Ġsalute":7528,"Ġsandy":7529,"Ġsnowy":7530,"Ġsympathize":7531,"Ġwrincled":7532,"Ġwipe":7533,"Ġhomely":7534,"Ġhuddling":7535,"Ġobtain":7536,"Ġoozy":7537,"Ġmazes":7538,"Ġtrespass":7539,"enemy":7540,"Ġdrouth":7541,"Ġdazling":7542,"Ġcleer":7543,"Ġcases":7544,"Ġcunning":7545,"Ġcredulous":7546,"Ġlifetime":7547,"Ġlagging":7548,"Ġnaufrag":7549,"Ġtools":7550,"Ġincident":7551,"Ġgaudy":7552,"ĠSisters":7553,"ĠSecond":7554,"ĠSavage":7555,"ĠSorcerer":7556,"ĠSanctuary":7557,"Ġstartle":7558,"Ġrevelry":7559,"asperate":7560,"Ġmysterious":7561,"ĠLudlow":7562,"ĠLocrine":7563,"ĠLAWES":7564,"ĠPrayers":7565,"ĠAbraham":7566,"ĠAthenian":7567,"ĠArethuse":7568,"ĠHinds":7569,"ĠMistres":7570,"ĠMORNING":7571,"ĠMAIESTIES":7572,"ĠMurtherer":7573,"ĠCarrier":7574,"ĠGardens":7575,"Ġvouchsafe":7576,"ĠBridgewater":7577,"Ġspectacle":7578,"Ġsublime":7579,"ĠTabern":7580,"ĠTetrachordon":7581,"ĠTIME":7582,"ĠTravailer":7583,"ĠFAIR":7584,"ĠFestival":7585,"ĠForests":7586,"Ġchoicest":7587,"indicate":7588,"Ġunemphatic":7589,"Ġungodly":7590,"ĠOccasions":7591,"ĠEternity":7592,"ĠEuripides":7593,"ĠENGLISH":7594,"Ġlikenes":7595,"Ġblunders":7596,"Ġblasphem":7597,"Ġfarewel":7598,"ĠNectar":7599,"ospitable":7600,"Ġglittering":7601,"Ġglimmering":7602,"Ġraigns":7603,"Ġalwayes":7604,"Ġambitious":7605,"ĠJollity":7606,"ĠVacation":7607,"Ġperplex":7608,"Ġperpetual":7609,"departure":7610,"Ġdespoil":7611,"Ġreproduces":7612,"Ġleggiad":7613,"Shakespeare":7614,"ĠAmbrosial":7615,"Unmindfull":7616,"Ġpriviledge":7617,"Ġeminently":7618,"Ġinvincible":7619,"Ġunfortunate":7620,"ĠMargaret":7621,"SONNETS":7622,"Ġbarbarous":7623,"Ġburdensom":7624,"Ġpunctuation":7625,"ĠPRESENTED":7626,"ĠContemplation":7627,"CHESTER":7628,"ĠAGONISTES":7629}